{
  "version": "1.0",
  "truncation": null,
  "padding": null,
  "added_tokens": [
    {
      "id": 0,
      "special": true,
      "content": "[UNK]",
      "single_word": false,
      "lstrip": false,
      "rstrip": false,
      "normalized": false
    },
    {
      "id": 1,
      "special": true,
      "content": "[CLS]",
      "single_word": false,
      "lstrip": false,
      "rstrip": false,
      "normalized": false
    },
    {
      "id": 2,
      "special": true,
      "content": "[SEP]",
      "single_word": false,
      "lstrip": false,
      "rstrip": false,
      "normalized": false
    },
    {
      "id": 3,
      "special": true,
      "content": "[PAD]",
      "single_word": false,
      "lstrip": false,
      "rstrip": false,
      "normalized": false
    },
    {
      "id": 4,
      "special": true,
      "content": "[MASK]",
      "single_word": false,
      "lstrip": false,
      "rstrip": false,
      "normalized": false
    }
  ],
  "normalizer": {
    "type": "Lowercase"
  },
  "pre_tokenizer": {
    "type": "Sequence",
    "pretokenizers": [
      {
        "type": "Whitespace"
      },
      {
        "type": "Digits",
        "individual_digits": false
      },
      {
        "type": "Punctuation"
      }
    ]
  },
  "post_processor": {
    "type": "TemplateProcessing",
    "single": [
      {
        "SpecialToken": {
          "id": "[CLS]",
          "type_id": 0
        }
      },
      {
        "Sequence": {
          "id": "A",
          "type_id": 0
        }
      },
      {
        "SpecialToken": {
          "id": "[SEP]",
          "type_id": 0
        }
      }
    ],
    "pair": [
      {
        "SpecialToken": {
          "id": "[CLS]",
          "type_id": 0
        }
      },
      {
        "Sequence": {
          "id": "A",
          "type_id": 0
        }
      },
      {
        "SpecialToken": {
          "id": "[SEP]",
          "type_id": 0
        }
      },
      {
        "Sequence": {
          "id": "B",
          "type_id": 1
        }
      },
      {
        "SpecialToken": {
          "id": "[SEP]",
          "type_id": 1
        }
      }
    ],
    "special_tokens": {
      "[CLS]": {
        "id": "[CLS]",
        "ids": [
          1
        ],
        "tokens": [
          "[CLS]"
        ]
      },
      "[SEP]": {
        "id": "[SEP]",
        "ids": [
          2
        ],
        "tokens": [
          "[SEP]"
        ]
      }
    }
  },
  "decoder": null,
  "model": {
    "type": "BPE",
    "dropout": null,
    "unk_token": "[UNK]",
    "continuing_subword_prefix": null,
    "end_of_word_suffix": null,
    "fuse_unk": false,
    "vocab": {
      "[UNK]": 0,
      "[CLS]": 1,
      "[SEP]": 2,
      "[PAD]": 3,
      "[MASK]": 4,
      "\u0000": 5,
      "\u0001": 6,
      "\u0002": 7,
      "\u0003": 8,
      "\u0004": 9,
      "\u0005": 10,
      "\u0006": 11,
      "\u0007": 12,
      "\b": 13,
      "\u000f": 14,
      "\u0010": 15,
      "\u0011": 16,
      "\u0012": 17,
      "\u0013": 18,
      "\u0014": 19,
      "\u0015": 20,
      "\u0016": 21,
      "\u0017": 22,
      "\u0018": 23,
      "\u0019": 24,
      "\u001b": 25,
      "\u001c": 26,
      "\u001d": 27,
      "\u001e": 28,
      "\u001f": 29,
      "!": 30,
      "\"": 31,
      "#": 32,
      "$": 33,
      "%": 34,
      "&": 35,
      "'": 36,
      "(": 37,
      ")": 38,
      "*": 39,
      "+": 40,
      ",": 41,
      "-": 42,
      ".": 43,
      "/": 44,
      "0": 45,
      "1": 46,
      "2": 47,
      "3": 48,
      "4": 49,
      "5": 50,
      "6": 51,
      "7": 52,
      "8": 53,
      "9": 54,
      ":": 55,
      ";": 56,
      "<": 57,
      "=": 58,
      ">": 59,
      "?": 60,
      "@": 61,
      "[": 62,
      "\\": 63,
      "]": 64,
      "^": 65,
      "_": 66,
      "`": 67,
      "a": 68,
      "b": 69,
      "c": 70,
      "d": 71,
      "e": 72,
      "f": 73,
      "g": 74,
      "h": 75,
      "i": 76,
      "j": 77,
      "k": 78,
      "l": 79,
      "m": 80,
      "n": 81,
      "o": 82,
      "p": 83,
      "q": 84,
      "r": 85,
      "s": 86,
      "t": 87,
      "u": 88,
      "v": 89,
      "w": 90,
      "x": 91,
      "y": 92,
      "z": 93,
      "{": 94,
      "|": 95,
      "}": 96,
      "~": 97,
      "": 98,
      "": 99,
      "": 100,
      "": 101,
      "": 102,
      "": 103,
      "": 104,
      "": 105,
      "": 106,
      "": 107,
      "": 108,
      "": 109,
      "": 110,
      "": 111,
      "¡": 112,
      "¢": 113,
      "£": 114,
      "¤": 115,
      "¥": 116,
      "¦": 117,
      "§": 118,
      "¨": 119,
      "©": 120,
      "ª": 121,
      "«": 122,
      "¬": 123,
      "­": 124,
      "®": 125,
      "¯": 126,
      "°": 127,
      "±": 128,
      "²": 129,
      "³": 130,
      "´": 131,
      "µ": 132,
      "¶": 133,
      "·": 134,
      "¸": 135,
      "¹": 136,
      "º": 137,
      "»": 138,
      "¼": 139,
      "½": 140,
      "¾": 141,
      "¿": 142,
      "×": 143,
      "ß": 144,
      "à": 145,
      "á": 146,
      "â": 147,
      "ã": 148,
      "ä": 149,
      "å": 150,
      "æ": 151,
      "ç": 152,
      "è": 153,
      "é": 154,
      "ê": 155,
      "ë": 156,
      "ì": 157,
      "í": 158,
      "î": 159,
      "ï": 160,
      "ð": 161,
      "ñ": 162,
      "ò": 163,
      "ó": 164,
      "ô": 165,
      "õ": 166,
      "ö": 167,
      "÷": 168,
      "ø": 169,
      "ù": 170,
      "ú": 171,
      "û": 172,
      "ü": 173,
      "ý": 174,
      "þ": 175,
      "ÿ": 176,
      "ā": 177,
      "ă": 178,
      "ą": 179,
      "ć": 180,
      "ĉ": 181,
      "ċ": 182,
      "č": 183,
      "ď": 184,
      "đ": 185,
      "ē": 186,
      "ĕ": 187,
      "ė": 188,
      "ę": 189,
      "ě": 190,
      "ĝ": 191,
      "ğ": 192,
      "ġ": 193,
      "ģ": 194,
      "ĥ": 195,
      "ħ": 196,
      "ĩ": 197,
      "ī": 198,
      "ĭ": 199,
      "į": 200,
      "ı": 201,
      "ĳ": 202,
      "ĵ": 203,
      "ķ": 204,
      "ĺ": 205,
      "ļ": 206,
      "ľ": 207,
      "ł": 208,
      "ń": 209,
      "ņ": 210,
      "ň": 211,
      "ŋ": 212,
      "ō": 213,
      "ŏ": 214,
      "ő": 215,
      "œ": 216,
      "ŕ": 217,
      "ŗ": 218,
      "ř": 219,
      "ś": 220,
      "ŝ": 221,
      "ş": 222,
      "š": 223,
      "ţ": 224,
      "ť": 225,
      "ŧ": 226,
      "ũ": 227,
      "ū": 228,
      "ŭ": 229,
      "ů": 230,
      "ű": 231,
      "ų": 232,
      "ŵ": 233,
      "ŷ": 234,
      "ź": 235,
      "ż": 236,
      "ž": 237,
      "ſ": 238,
      "ƀ": 239,
      "ƃ": 240,
      "ƈ": 241,
      "ƒ": 242,
      "ƕ": 243,
      "ƛ": 244,
      "ơ": 245,
      "ƥ": 246,
      "ƨ": 247,
      "ƪ": 248,
      "ư": 249,
      "ƹ": 250,
      "ƽ": 251,
      "ƿ": 252,
      "ǎ": 253,
      "ǐ": 254,
      "ǒ": 255,
      "ǔ": 256,
      "ǝ": 257,
      "ǟ": 258,
      "ǩ": 259,
      "ǫ": 260,
      "ǭ": 261,
      "ǰ": 262,
      "ǵ": 263,
      "ǿ": 264,
      "ȁ": 265,
      "ȃ": 266,
      "ȍ": 267,
      "ȓ": 268,
      "ș": 269,
      "ț": 270,
      "ȟ": 271,
      "ȯ": 272,
      "ȳ": 273,
      "ɂ": 274,
      "ɍ": 275,
      "ɐ": 276,
      "ɑ": 277,
      "ɒ": 278,
      "ɓ": 279,
      "ɔ": 280,
      "ɕ": 281,
      "ɘ": 282,
      "ə": 283,
      "ɚ": 284,
      "ɛ": 285,
      "ɜ": 286,
      "ɝ": 287,
      "ɟ": 288,
      "ɡ": 289,
      "ɢ": 290,
      "ɣ": 291,
      "ɤ": 292,
      "ɥ": 293,
      "ɦ": 294,
      "ɨ": 295,
      "ɪ": 296,
      "ɫ": 297,
      "ɬ": 298,
      "ɮ": 299,
      "ɯ": 300,
      "ɰ": 301,
      "ɲ": 302,
      "ɴ": 303,
      "ɵ": 304,
      "ɸ": 305,
      "ɹ": 306,
      "ɻ": 307,
      "ɽ": 308,
      "ɾ": 309,
      "ɿ": 310,
      "ʀ": 311,
      "ʁ": 312,
      "ʃ": 313,
      "ʅ": 314,
      "ʇ": 315,
      "ʉ": 316,
      "ʊ": 317,
      "ʋ": 318,
      "ʌ": 319,
      "ʍ": 320,
      "ʎ": 321,
      "ʏ": 322,
      "ʐ": 323,
      "ʑ": 324,
      "ʒ": 325,
      "ʔ": 326,
      "ʕ": 327,
      "ʖ": 328,
      "ʘ": 329,
      "ʙ": 330,
      "ʜ": 331,
      "ʝ": 332,
      "ʞ": 333,
      "ʟ": 334,
      "ʢ": 335,
      "ʤ": 336,
      "ʦ": 337,
      "ʮ": 338,
      "ʰ": 339,
      "ʱ": 340,
      "ʲ": 341,
      "ʳ": 342,
      "ʷ": 343,
      "ʸ": 344,
      "ʹ": 345,
      "ʻ": 346,
      "ʼ": 347,
      "ʾ": 348,
      "ʿ": 349,
      "˂": 350,
      "˃": 351,
      "ˆ": 352,
      "ˇ": 353,
      "ˈ": 354,
      "ˊ": 355,
      "ˋ": 356,
      "ˌ": 357,
      "ˍ": 358,
      "ː": 359,
      "ˑ": 360,
      "˓": 361,
      "˕": 362,
      "˖": 363,
      "˘": 364,
      "˙": 365,
      "˚": 366,
      "˛": 367,
      "˜": 368,
      "˝": 369,
      "˟": 370,
      "ˠ": 371,
      "ˢ": 372,
      "ˤ": 373,
      "˥": 374,
      "˦": 375,
      "˧": 376,
      "˨": 377,
      "˩": 378,
      "˵": 379,
      "˶": 380,
      "˽": 381,
      "̀": 382,
      "́": 383,
      "̂": 384,
      "̃": 385,
      "̄": 386,
      "̅": 387,
      "̆": 388,
      "̇": 389,
      "̈": 390,
      "̉": 391,
      "̊": 392,
      "̋": 393,
      "̌": 394,
      "̍": 395,
      "̎": 396,
      "̏": 397,
      "̐": 398,
      "̑": 399,
      "̒": 400,
      "̓": 401,
      "̔": 402,
      "̕": 403,
      "̖": 404,
      "̗": 405,
      "̘": 406,
      "̙": 407,
      "̚": 408,
      "̛": 409,
      "̜": 410,
      "̝": 411,
      "̞": 412,
      "̟": 413,
      "̠": 414,
      "̡": 415,
      "̢": 416,
      "̣": 417,
      "̤": 418,
      "̥": 419,
      "̦": 420,
      "̧": 421,
      "̨": 422,
      "̩": 423,
      "̪": 424,
      "̫": 425,
      "̬": 426,
      "̭": 427,
      "̮": 428,
      "̯": 429,
      "̰": 430,
      "̱": 431,
      "̲": 432,
      "̳": 433,
      "̴": 434,
      "̵": 435,
      "̶": 436,
      "̷": 437,
      "̸": 438,
      "̹": 439,
      "̺": 440,
      "̻": 441,
      "̼": 442,
      "̽": 443,
      "̾": 444,
      "̿": 445,
      "̀": 446,
      "́": 447,
      "͂": 448,
      "̓": 449,
      "̈́": 450,
      "ͅ": 451,
      "͆": 452,
      "͇": 453,
      "͈": 454,
      "͉": 455,
      "͊": 456,
      "͋": 457,
      "͌": 458,
      "͍": 459,
      "͎": 460,
      "͏": 461,
      "͐": 462,
      "͑": 463,
      "͒": 464,
      "͓": 465,
      "͔": 466,
      "͕": 467,
      "͖": 468,
      "͗": 469,
      "͘": 470,
      "͙": 471,
      "͚": 472,
      "͛": 473,
      "͜": 474,
      "͝": 475,
      "͞": 476,
      "͟": 477,
      "͠": 478,
      "͡": 479,
      "͢": 480,
      "ͣ": 481,
      "ͤ": 482,
      "ͥ": 483,
      "ͦ": 484,
      "ͧ": 485,
      "ͨ": 486,
      "ͩ": 487,
      "ͪ": 488,
      "ͫ": 489,
      "ͬ": 490,
      "ͭ": 491,
      "ͮ": 492,
      "ͯ": 493,
      "΄": 494,
      "·": 495,
      "ΐ": 496,
      "ά": 497,
      "έ": 498,
      "ή": 499,
      "ί": 500,
      "α": 501,
      "β": 502,
      "γ": 503,
      "δ": 504,
      "ε": 505,
      "ζ": 506,
      "η": 507,
      "θ": 508,
      "ι": 509,
      "κ": 510,
      "λ": 511,
      "μ": 512,
      "ν": 513,
      "ξ": 514,
      "ο": 515,
      "π": 516,
      "ρ": 517,
      "ς": 518,
      "σ": 519,
      "τ": 520,
      "υ": 521,
      "φ": 522,
      "χ": 523,
      "ψ": 524,
      "ω": 525,
      "ϊ": 526,
      "ϋ": 527,
      "ό": 528,
      "ύ": 529,
      "ώ": 530,
      "ϒ": 531,
      "ϕ": 532,
      "ϖ": 533,
      "ϟ": 534,
      "ϣ": 535,
      "ϫ": 536,
      "ϯ": 537,
      "ϲ": 538,
      "ϵ": 539,
      "а": 540,
      "б": 541,
      "в": 542,
      "г": 543,
      "д": 544,
      "е": 545,
      "ж": 546,
      "з": 547,
      "и": 548,
      "й": 549,
      "к": 550,
      "л": 551,
      "м": 552,
      "н": 553,
      "о": 554,
      "п": 555,
      "р": 556,
      "с": 557,
      "т": 558,
      "у": 559,
      "ф": 560,
      "х": 561,
      "ц": 562,
      "ч": 563,
      "ш": 564,
      "щ": 565,
      "ъ": 566,
      "ы": 567,
      "ь": 568,
      "э": 569,
      "ю": 570,
      "я": 571,
      "ё": 572,
      "ђ": 573,
      "ѓ": 574,
      "є": 575,
      "ѕ": 576,
      "і": 577,
      "ї": 578,
      "ј": 579,
      "љ": 580,
      "њ": 581,
      "ћ": 582,
      "ќ": 583,
      "ѝ": 584,
      "ў": 585,
      "џ": 586,
      "ѡ": 587,
      "ѧ": 588,
      "ѫ": 589,
      "ѯ": 590,
      "ѱ": 591,
      "ѳ": 592,
      "ѵ": 593,
      "ѹ": 594,
      "҂": 595,
      "҈": 596,
      "҉": 597,
      "ҍ": 598,
      "ґ": 599,
      "ғ": 600,
      "ҫ": 601,
      "ҭ": 602,
      "ү": 603,
      "ұ": 604,
      "ӈ": 605,
      "ӏ": 606,
      "ӑ": 607,
      "ә": 608,
      "ӻ": 609,
      "ӿ": 610,
      "ԁ": 611,
      "ԅ": 612,
      "՛": 613,
      "՝": 614,
      "՞": 615,
      "ա": 616,
      "բ": 617,
      "գ": 618,
      "դ": 619,
      "ե": 620,
      "զ": 621,
      "է": 622,
      "ը": 623,
      "թ": 624,
      "ժ": 625,
      "ի": 626,
      "լ": 627,
      "խ": 628,
      "ծ": 629,
      "կ": 630,
      "հ": 631,
      "ձ": 632,
      "ղ": 633,
      "ճ": 634,
      "մ": 635,
      "յ": 636,
      "ն": 637,
      "շ": 638,
      "ո": 639,
      "չ": 640,
      "պ": 641,
      "ջ": 642,
      "ռ": 643,
      "ս": 644,
      "վ": 645,
      "տ": 646,
      "ր": 647,
      "ց": 648,
      "ւ": 649,
      "փ": 650,
      "ք": 651,
      "օ": 652,
      "ֆ": 653,
      "և": 654,
      "։": 655,
      "֊": 656,
      "ְ": 657,
      "ֱ": 658,
      "ֲ": 659,
      "ֳ": 660,
      "ִ": 661,
      "ֵ": 662,
      "ֶ": 663,
      "ַ": 664,
      "ָ": 665,
      "ֹ": 666,
      "ּ": 667,
      "־": 668,
      "ׁ": 669,
      "ׂ": 670,
      "א": 671,
      "ב": 672,
      "ג": 673,
      "ד": 674,
      "ה": 675,
      "ו": 676,
      "ז": 677,
      "ח": 678,
      "ט": 679,
      "י": 680,
      "ך": 681,
      "כ": 682,
      "ל": 683,
      "ם": 684,
      "מ": 685,
      "ן": 686,
      "נ": 687,
      "ס": 688,
      "ע": 689,
      "ף": 690,
      "פ": 691,
      "ץ": 692,
      "צ": 693,
      "ק": 694,
      "ר": 695,
      "ש": 696,
      "ת": 697,
      "ױ": 698,
      "״": 699,
      "،": 700,
      "؟": 701,
      "ء": 702,
      "آ": 703,
      "أ": 704,
      "ؤ": 705,
      "إ": 706,
      "ئ": 707,
      "ا": 708,
      "ب": 709,
      "ة": 710,
      "ت": 711,
      "ث": 712,
      "ج": 713,
      "ح": 714,
      "خ": 715,
      "د": 716,
      "ذ": 717,
      "ر": 718,
      "ز": 719,
      "س": 720,
      "ش": 721,
      "ص": 722,
      "ض": 723,
      "ط": 724,
      "ظ": 725,
      "ع": 726,
      "غ": 727,
      "ـ": 728,
      "ف": 729,
      "ق": 730,
      "ك": 731,
      "ل": 732,
      "م": 733,
      "ن": 734,
      "ه": 735,
      "و": 736,
      "ى": 737,
      "ي": 738,
      "ً": 739,
      "ٌ": 740,
      "ٍ": 741,
      "َ": 742,
      "ُ": 743,
      "ِ": 744,
      "ّ": 745,
      "ْ": 746,
      "ٓ": 747,
      "٠": 748,
      "١": 749,
      "٢": 750,
      "٣": 751,
      "٤": 752,
      "٥": 753,
      "٦": 754,
      "٧": 755,
      "٨": 756,
      "٩": 757,
      "٭": 758,
      "ٰ": 759,
      "ٱ": 760,
      "ٹ": 761,
      "ټ": 762,
      "پ": 763,
      "چ": 764,
      "ڈ": 765,
      "ژ": 766,
      "ښ": 767,
      "ڡ": 768,
      "ڤ": 769,
      "ک": 770,
      "گ": 771,
      "ں": 772,
      "ھ": 773,
      "ہ": 774,
      "ۆ": 775,
      "ی": 776,
      "ۍ": 777,
      "ێ": 778,
      "ې": 779,
      "ے": 780,
      "۔": 781,
      "ە": 782,
      "ۖ": 783,
      "ۗ": 784,
      "ۚ": 785,
      "۞": 786,
      "۬": 787,
      "۳": 788,
      "۶": 789,
      "ܐ": 790,
      "ܘ": 791,
      "ܟ": 792,
      "ܡ": 793,
      "ܢ": 794,
      "ܥ": 795,
      "ܦ": 796,
      "ܫ": 797,
      "ܬ": 798,
      "ܵ": 799,
      "ܸ": 800,
      "ܹ": 801,
      "ܿ": 802,
      "݁": 803,
      "݂": 804,
      "ߐ": 805,
      "ߤ": 806,
      "ँ": 807,
      "ं": 808,
      "ः": 809,
      "अ": 810,
      "आ": 811,
      "इ": 812,
      "ई": 813,
      "उ": 814,
      "ऊ": 815,
      "ऋ": 816,
      "ऌ": 817,
      "ऍ": 818,
      "ऎ": 819,
      "ए": 820,
      "ऐ": 821,
      "ऑ": 822,
      "ऒ": 823,
      "ओ": 824,
      "औ": 825,
      "क": 826,
      "ख": 827,
      "ग": 828,
      "घ": 829,
      "ङ": 830,
      "च": 831,
      "छ": 832,
      "ज": 833,
      "झ": 834,
      "ञ": 835,
      "ट": 836,
      "ठ": 837,
      "ड": 838,
      "ढ": 839,
      "ण": 840,
      "त": 841,
      "थ": 842,
      "द": 843,
      "ध": 844,
      "न": 845,
      "प": 846,
      "फ": 847,
      "ब": 848,
      "भ": 849,
      "म": 850,
      "य": 851,
      "र": 852,
      "ल": 853,
      "ळ": 854,
      "व": 855,
      "श": 856,
      "ष": 857,
      "स": 858,
      "ह": 859,
      "़": 860,
      "ऽ": 861,
      "ा": 862,
      "ि": 863,
      "ी": 864,
      "ु": 865,
      "ू": 866,
      "ृ": 867,
      "ॄ": 868,
      "ॅ": 869,
      "ॆ": 870,
      "े": 871,
      "ै": 872,
      "ॉ": 873,
      "ॊ": 874,
      "ो": 875,
      "ौ": 876,
      "्": 877,
      "ॐ": 878,
      "क़": 879,
      "ग़": 880,
      "फ़": 881,
      "ॠ": 882,
      "ॡ": 883,
      "ॢ": 884,
      "ॣ": 885,
      "।": 886,
      "॥": 887,
      "०": 888,
      "१": 889,
      "२": 890,
      "३": 891,
      "४": 892,
      "५": 893,
      "६": 894,
      "७": 895,
      "८": 896,
      "९": 897,
      "॰": 898,
      "ঁ": 899,
      "ং": 900,
      "ঃ": 901,
      "অ": 902,
      "আ": 903,
      "ই": 904,
      "উ": 905,
      "ঊ": 906,
      "ঋ": 907,
      "এ": 908,
      "ঐ": 909,
      "ও": 910,
      "ঔ": 911,
      "ক": 912,
      "খ": 913,
      "গ": 914,
      "ঘ": 915,
      "ঙ": 916,
      "চ": 917,
      "ছ": 918,
      "জ": 919,
      "ঝ": 920,
      "ঞ": 921,
      "ট": 922,
      "ঠ": 923,
      "ড": 924,
      "ঢ": 925,
      "ণ": 926,
      "ত": 927,
      "থ": 928,
      "দ": 929,
      "ধ": 930,
      "ন": 931,
      "প": 932,
      "ফ": 933,
      "ব": 934,
      "ভ": 935,
      "ম": 936,
      "য": 937,
      "র": 938,
      "ল": 939,
      "শ": 940,
      "ষ": 941,
      "স": 942,
      "হ": 943,
      "়": 944,
      "া": 945,
      "ি": 946,
      "ী": 947,
      "ু": 948,
      "ূ": 949,
      "ৃ": 950,
      "ে": 951,
      "ৈ": 952,
      "ো": 953,
      "ৌ": 954,
      "্": 955,
      "ৎ": 956,
      "ড়": 957,
      "য়": 958,
      "০": 959,
      "১": 960,
      "২": 961,
      "৩": 962,
      "৪": 963,
      "৫": 964,
      "৬": 965,
      "৭": 966,
      "৮": 967,
      "৯": 968,
      "ৰ": 969,
      "ৱ": 970,
      "ਂ": 971,
      "ਅ": 972,
      "ਆ": 973,
      "ਇ": 974,
      "ਈ": 975,
      "ਉ": 976,
      "ਊ": 977,
      "ਏ": 978,
      "ਐ": 979,
      "ਓ": 980,
      "ਔ": 981,
      "ਕ": 982,
      "ਖ": 983,
      "ਗ": 984,
      "ਘ": 985,
      "ਙ": 986,
      "ਚ": 987,
      "ਛ": 988,
      "ਜ": 989,
      "ਝ": 990,
      "ਞ": 991,
      "ਟ": 992,
      "ਠ": 993,
      "ਡ": 994,
      "ਢ": 995,
      "ਣ": 996,
      "ਤ": 997,
      "ਥ": 998,
      "ਦ": 999,
      "ਧ": 1000,
      "ਨ": 1001,
      "ਪ": 1002,
      "ਫ": 1003,
      "ਬ": 1004,
      "ਭ": 1005,
      "ਮ": 1006,
      "ਯ": 1007,
      "ਰ": 1008,
      "ਲ": 1009,
      "ਵ": 1010,
      "ਸ": 1011,
      "ਹ": 1012,
      "਼": 1013,
      "ਾ": 1014,
      "ਿ": 1015,
      "ੀ": 1016,
      "ੁ": 1017,
      "ੂ": 1018,
      "ੇ": 1019,
      "ੈ": 1020,
      "ੋ": 1021,
      "੍": 1022,
      "ੜ": 1023,
      "੧": 1024,
      "੨": 1025,
      "੩": 1026,
      "੪": 1027,
      "੫": 1028,
      "੬": 1029,
      "੭": 1030,
      "੮": 1031,
      "ੰ": 1032,
      "ੱ": 1033,
      "ੲ": 1034,
      "અ": 1035,
      "આ": 1036,
      "ઇ": 1037,
      "ઈ": 1038,
      "ઉ": 1039,
      "ઊ": 1040,
      "ઋ": 1041,
      "ઌ": 1042,
      "ઍ": 1043,
      "એ": 1044,
      "ઐ": 1045,
      "ઑ": 1046,
      "ઓ": 1047,
      "ઔ": 1048,
      "ક": 1049,
      "ખ": 1050,
      "ગ": 1051,
      "ઘ": 1052,
      "ઙ": 1053,
      "ચ": 1054,
      "છ": 1055,
      "જ": 1056,
      "ઝ": 1057,
      "ઞ": 1058,
      "ટ": 1059,
      "ઠ": 1060,
      "ડ": 1061,
      "ઢ": 1062,
      "ણ": 1063,
      "ત": 1064,
      "થ": 1065,
      "દ": 1066,
      "ધ": 1067,
      "ન": 1068,
      "પ": 1069,
      "ફ": 1070,
      "બ": 1071,
      "ભ": 1072,
      "મ": 1073,
      "ય": 1074,
      "ર": 1075,
      "લ": 1076,
      "ળ": 1077,
      "વ": 1078,
      "શ": 1079,
      "ષ": 1080,
      "સ": 1081,
      "હ": 1082,
      "ા": 1083,
      "ે": 1084,
      "ો": 1085,
      "ૠ": 1086,
      "ૡ": 1087,
      "ૢ": 1088,
      "ૣ": 1089,
      "૮": 1090,
      "ଠ": 1091,
      "୧": 1092,
      "୨": 1093,
      "ஃ": 1094,
      "அ": 1095,
      "ஆ": 1096,
      "இ": 1097,
      "ஈ": 1098,
      "உ": 1099,
      "ஊ": 1100,
      "எ": 1101,
      "ஏ": 1102,
      "ஐ": 1103,
      "ஒ": 1104,
      "ஓ": 1105,
      "ஔ": 1106,
      "க": 1107,
      "ங": 1108,
      "ச": 1109,
      "ஞ": 1110,
      "ட": 1111,
      "ண": 1112,
      "த": 1113,
      "ந": 1114,
      "ன": 1115,
      "ப": 1116,
      "ம": 1117,
      "ய": 1118,
      "ர": 1119,
      "ற": 1120,
      "ல": 1121,
      "ள": 1122,
      "ழ": 1123,
      "வ": 1124,
      "ஷ": 1125,
      "ஸ": 1126,
      "ா": 1127,
      "ி": 1128,
      "ீ": 1129,
      "ு": 1130,
      "ூ": 1131,
      "ெ": 1132,
      "ே": 1133,
      "ை": 1134,
      "்": 1135,
      "௰": 1136,
      "ం": 1137,
      "క": 1138,
      "గ": 1139,
      "ట": 1140,
      "ఠ": 1141,
      "త": 1142,
      "ర": 1143,
      "వ": 1144,
      "ా": 1145,
      "ి": 1146,
      "ొ": 1147,
      "ో": 1148,
      "్": 1149,
      "౦": 1150,
      "౪": 1151,
      "ಎ": 1152,
      "ಠ": 1153,
      "ತ": 1154,
      "ಥ": 1155,
      "ದ": 1156,
      "ರ": 1157,
      "ೂ": 1158,
      "ೃ": 1159,
      "ೋ": 1160,
      "ം": 1161,
      "അ": 1162,
      "ആ": 1163,
      "എ": 1164,
      "ഏ": 1165,
      "ഒ": 1166,
      "ക": 1167,
      "ഖ": 1168,
      "ഗ": 1169,
      "ഘ": 1170,
      "ങ": 1171,
      "ച": 1172,
      "ജ": 1173,
      "ഞ": 1174,
      "ട": 1175,
      "ണ": 1176,
      "ത": 1177,
      "ദ": 1178,
      "ധ": 1179,
      "ന": 1180,
      "പ": 1181,
      "ബ": 1182,
      "ഭ": 1183,
      "മ": 1184,
      "യ": 1185,
      "ര": 1186,
      "റ": 1187,
      "ല": 1188,
      "ള": 1189,
      "വ": 1190,
      "ശ": 1191,
      "ഷ": 1192,
      "സ": 1193,
      "ാ": 1194,
      "ി": 1195,
      "ീ": 1196,
      "ു": 1197,
      "ൂ": 1198,
      "െ": 1199,
      "േ": 1200,
      "ോ": 1201,
      "്": 1202,
      "ൾ": 1203,
      "ඬ": 1204,
      "ම": 1205,
      "ෆ": 1206,
      "ි": 1207,
      "෴": 1208,
      "ก": 1209,
      "ข": 1210,
      "ค": 1211,
      "ฅ": 1212,
      "ฆ": 1213,
      "ง": 1214,
      "จ": 1215,
      "ช": 1216,
      "ซ": 1217,
      "ญ": 1218,
      "ณ": 1219,
      "ด": 1220,
      "ต": 1221,
      "ถ": 1222,
      "ท": 1223,
      "ธ": 1224,
      "น": 1225,
      "บ": 1226,
      "ป": 1227,
      "ผ": 1228,
      "พ": 1229,
      "ภ": 1230,
      "ม": 1231,
      "ย": 1232,
      "ร": 1233,
      "ล": 1234,
      "ว": 1235,
      "ษ": 1236,
      "ส": 1237,
      "ห": 1238,
      "อ": 1239,
      "ฯ": 1240,
      "ะ": 1241,
      "ั": 1242,
      "า": 1243,
      "ำ": 1244,
      "ิ": 1245,
      "ี": 1246,
      "ื": 1247,
      "ุ": 1248,
      "ู": 1249,
      "ฺ": 1250,
      "฿": 1251,
      "เ": 1252,
      "แ": 1253,
      "โ": 1254,
      "ใ": 1255,
      "ไ": 1256,
      "ๅ": 1257,
      "ๆ": 1258,
      "็": 1259,
      "่": 1260,
      "้": 1261,
      "์": 1262,
      "ํ": 1263,
      "๏": 1264,
      "๑": 1265,
      "ຂ": 1266,
      "ງ": 1267,
      "ຈ": 1268,
      "ທ": 1269,
      "ນ": 1270,
      "ບ": 1271,
      "ມ": 1272,
      "ຢ": 1273,
      "ລ": 1274,
      "ອ": 1275,
      "ັ": 1276,
      "າ": 1277,
      "ິ": 1278,
      "ີ": 1279,
      "ຶ": 1280,
      "ົ": 1281,
      "ແ": 1282,
      "່": 1283,
      "້": 1284,
      "ໍ": 1285,
      "໒": 1286,
      "༄": 1287,
      "་": 1288,
      "༌": 1289,
      "།": 1290,
      "༎": 1291,
      "༙": 1292,
      "༝": 1293,
      "༶": 1294,
      "༺": 1295,
      "༻": 1296,
      "༼": 1297,
      "༽": 1298,
      "ཀ": 1299,
      "ཁ": 1300,
      "ག": 1301,
      "ང": 1302,
      "ཅ": 1303,
      "ཆ": 1304,
      "ཇ": 1305,
      "ཉ": 1306,
      "ཏ": 1307,
      "ཐ": 1308,
      "ད": 1309,
      "ན": 1310,
      "པ": 1311,
      "ཕ": 1312,
      "བ": 1313,
      "མ": 1314,
      "ཙ": 1315,
      "ཚ": 1316,
      "ཛ": 1317,
      "ཝ": 1318,
      "ཞ": 1319,
      "ཟ": 1320,
      "འ": 1321,
      "ཡ": 1322,
      "ར": 1323,
      "ལ": 1324,
      "ཤ": 1325,
      "ས": 1326,
      "ཧ": 1327,
      "ཨ": 1328,
      "ི": 1329,
      "ུ": 1330,
      "ེ": 1331,
      "ོ": 1332,
      "ྒ": 1333,
      "ྱ": 1334,
      "ྲ": 1335,
      "ླ": 1336,
      "ྴ": 1337,
      "ྶ": 1338,
      "တ": 1339,
      "ေ": 1340,
      "ွ": 1341,
      "၌": 1342,
      "ა": 1343,
      "ბ": 1344,
      "გ": 1345,
      "დ": 1346,
      "ე": 1347,
      "ვ": 1348,
      "ზ": 1349,
      "თ": 1350,
      "ი": 1351,
      "კ": 1352,
      "ლ": 1353,
      "მ": 1354,
      "ნ": 1355,
      "ო": 1356,
      "პ": 1357,
      "ჟ": 1358,
      "რ": 1359,
      "ს": 1360,
      "ტ": 1361,
      "უ": 1362,
      "ფ": 1363,
      "ქ": 1364,
      "ღ": 1365,
      "ყ": 1366,
      "შ": 1367,
      "ჩ": 1368,
      "ც": 1369,
      "ძ": 1370,
      "წ": 1371,
      "ჭ": 1372,
      "ხ": 1373,
      "ჯ": 1374,
      "ჰ": 1375,
      "ჱ": 1376,
      "ჲ": 1377,
      "ჳ": 1378,
      "ჴ": 1379,
      "ჵ": 1380,
      "ჶ": 1381,
      "ჷ": 1382,
      "ჸ": 1383,
      "ᄅ": 1384,
      "ᄽ": 1385,
      "ᄿ": 1386,
      "ᅌ": 1387,
      "ᆺ": 1388,
      "ᆽ": 1389,
      "ሁ": 1390,
      "ህ": 1391,
      "ሓ": 1392,
      "መ": 1393,
      "ም": 1394,
      "ሮ": 1395,
      "ቋ": 1396,
      "ብ": 1397,
      "ቶ": 1398,
      "ች": 1399,
      "ና": 1400,
      "ን": 1401,
      "እ": 1402,
      "ኩ": 1403,
      "ኳ": 1404,
      "ዕ": 1405,
      "ደ": 1406,
      "ድ": 1407,
      "ጣ": 1408,
      "ጻ": 1409,
      "ᐛ": 1410,
      "ᐟ": 1411,
      "ᐠ": 1412,
      "ᐢ": 1413,
      "ᑊ": 1414,
      "ᓄ": 1415,
      "ᕊ": 1416,
      "ᕕ": 1417,
      "ᕗ": 1418,
      "ᕙ": 1419,
      "ᕤ": 1420,
      "ᕦ": 1421,
      "ᗄ": 1422,
      "ᗜ": 1423,
      "ᗡ": 1424,
      "ᗩ": 1425,
      "ᘩ": 1426,
      "ᚠ": 1427,
      "ᚢ": 1428,
      "ᚥ": 1429,
      "ᚦ": 1430,
      "ᚩ": 1431,
      "ᚪ": 1432,
      "ᚱ": 1433,
      "ᚴ": 1434,
      "ᚼ": 1435,
      "ᚾ": 1436,
      "ᛁ": 1437,
      "ᛅ": 1438,
      "ᛋ": 1439,
      "ᛏ": 1440,
      "ᛒ": 1441,
      "ᛖ": 1442,
      "ᛗ": 1443,
      "ᛘ": 1444,
      "ᛚ": 1445,
      "ᛞ": 1446,
      "ᛟ": 1447,
      "ᛦ": 1448,
      "ក": 1449,
      "ខ": 1450,
      "គ": 1451,
      "ឃ": 1452,
      "ង": 1453,
      "ច": 1454,
      "ឆ": 1455,
      "ជ": 1456,
      "ឈ": 1457,
      "ញ": 1458,
      "ដ": 1459,
      "ឋ": 1460,
      "ឌ": 1461,
      "ឍ": 1462,
      "ណ": 1463,
      "ត": 1464,
      "ថ": 1465,
      "ទ": 1466,
      "ធ": 1467,
      "ន": 1468,
      "ប": 1469,
      "ផ": 1470,
      "ព": 1471,
      "ភ": 1472,
      "ម": 1473,
      "យ": 1474,
      "រ": 1475,
      "ល": 1476,
      "វ": 1477,
      "ស": 1478,
      "ហ": 1479,
      "ឡ": 1480,
      "អ": 1481,
      "ា": 1482,
      "ិ": 1483,
      "ី": 1484,
      "ឹ": 1485,
      "ឺ": 1486,
      "ុ": 1487,
      "ូ": 1488,
      "ួ": 1489,
      "ើ": 1490,
      "ឿ": 1491,
      "ៀ": 1492,
      "េ": 1493,
      "ែ": 1494,
      "ៃ": 1495,
      "ោ": 1496,
      "ៅ": 1497,
      "ំ": 1498,
      "ះ": 1499,
      "៉": 1500,
      "៊": 1501,
      "់": 1502,
      "័": 1503,
      "្": 1504,
      "ៗ": 1505,
      "១": 1506,
      "២": 1507,
      "៣": 1508,
      "៤": 1509,
      "៥": 1510,
      "៦": 1511,
      "៧": 1512,
      "៨": 1513,
      "៩": 1514,
      "᠌": 1515,
      "ᨎ": 1516,
      "ᨓ": 1517,
      "ᴀ": 1518,
      "ᴄ": 1519,
      "ᴅ": 1520,
      "ᴇ": 1521,
      "ᴉ": 1522,
      "ᴊ": 1523,
      "ᴋ": 1524,
      "ᴍ": 1525,
      "ᴏ": 1526,
      "ᴐ": 1527,
      "ᴓ": 1528,
      "ᴗ": 1529,
      "ᴘ": 1530,
      "ᴛ": 1531,
      "ᴜ": 1532,
      "ᴠ": 1533,
      "ᴡ": 1534,
      "ᴥ": 1535,
      "ᴬ": 1536,
      "ᴮ": 1537,
      "ᴰ": 1538,
      "ᴴ": 1539,
      "ᴵ": 1540,
      "ᴸ": 1541,
      "ᴼ": 1542,
      "ᴾ": 1543,
      "ᵃ": 1544,
      "ᵇ": 1545,
      "ᵈ": 1546,
      "ᵉ": 1547,
      "ᵊ": 1548,
      "ᵍ": 1549,
      "ᵏ": 1550,
      "ᵐ": 1551,
      "ᵒ": 1552,
      "ᵔ": 1553,
      "ᵕ": 1554,
      "ᵖ": 1555,
      "ᵗ": 1556,
      "ᵘ": 1557,
      "ᵛ": 1558,
      "ᵢ": 1559,
      "ᵣ": 1560,
      "ᵥ": 1561,
      "ᵻ": 1562,
      "ᶜ": 1563,
      "ᶠ": 1564,
      "ᶤ": 1565,
      "ᶦ": 1566,
      "ᶫ": 1567,
      "ᶰ": 1568,
      "ᶻ": 1569,
      "᷄": 1570,
      "᷅": 1571,
      "᷈": 1572,
      "᷉": 1573,
      "ḇ": 1574,
      "ḍ": 1575,
      "ḏ": 1576,
      "ḑ": 1577,
      "ḓ": 1578,
      "ḕ": 1579,
      "ḗ": 1580,
      "ḡ": 1581,
      "ḣ": 1582,
      "ḥ": 1583,
      "ḩ": 1584,
      "ḫ": 1585,
      "ḱ": 1586,
      "ḳ": 1587,
      "ḷ": 1588,
      "ḿ": 1589,
      "ṃ": 1590,
      "ṅ": 1591,
      "ṇ": 1592,
      "ṙ": 1593,
      "ṛ": 1594,
      "ṡ": 1595,
      "ṣ": 1596,
      "ṭ": 1597,
      "ṯ": 1598,
      "ṳ": 1599,
      "ẁ": 1600,
      "ẃ": 1601,
      "ẅ": 1602,
      "ẖ": 1603,
      "ẟ": 1604,
      "ạ": 1605,
      "ả": 1606,
      "ấ": 1607,
      "ầ": 1608,
      "ẩ": 1609,
      "ẫ": 1610,
      "ậ": 1611,
      "ắ": 1612,
      "ằ": 1613,
      "ẳ": 1614,
      "ẵ": 1615,
      "ặ": 1616,
      "ẹ": 1617,
      "ẻ": 1618,
      "ẽ": 1619,
      "ế": 1620,
      "ề": 1621,
      "ể": 1622,
      "ễ": 1623,
      "ệ": 1624,
      "ỉ": 1625,
      "ị": 1626,
      "ọ": 1627,
      "ỏ": 1628,
      "ố": 1629,
      "ồ": 1630,
      "ổ": 1631,
      "ỗ": 1632,
      "ộ": 1633,
      "ớ": 1634,
      "ờ": 1635,
      "ở": 1636,
      "ỡ": 1637,
      "ợ": 1638,
      "ụ": 1639,
      "ủ": 1640,
      "ứ": 1641,
      "ừ": 1642,
      "ử": 1643,
      "ữ": 1644,
      "ự": 1645,
      "ỳ": 1646,
      "ỵ": 1647,
      "ỷ": 1648,
      "ỹ": 1649,
      "ἀ": 1650,
      "ἁ": 1651,
      "ἂ": 1652,
      "ἃ": 1653,
      "ἄ": 1654,
      "ἅ": 1655,
      "ἆ": 1656,
      "ἐ": 1657,
      "ἑ": 1658,
      "ἓ": 1659,
      "ἔ": 1660,
      "ἕ": 1661,
      "ἠ": 1662,
      "ἡ": 1663,
      "ἢ": 1664,
      "ἥ": 1665,
      "ἰ": 1666,
      "ἱ": 1667,
      "ἴ": 1668,
      "ἶ": 1669,
      "ὀ": 1670,
      "ὁ": 1671,
      "ὐ": 1672,
      "ὑ": 1673,
      "ὕ": 1674,
      "ὖ": 1675,
      "ὡ": 1676,
      "ὤ": 1677,
      "ὦ": 1678,
      "ὰ": 1679,
      "ὲ": 1680,
      "έ": 1681,
      "ὴ": 1682,
      "ή": 1683,
      "ὶ": 1684,
      "ί": 1685,
      "ὸ": 1686,
      "ό": 1687,
      "ὺ": 1688,
      "ὼ": 1689,
      "ώ": 1690,
      "ᾐ": 1691,
      "ᾖ": 1692,
      "ᾠ": 1693,
      "ᾥ": 1694,
      "ᾳ": 1695,
      "ῃ": 1696,
      "ῆ": 1697,
      "ῇ": 1698,
      "ῖ": 1699,
      "ῦ": 1700,
      "ῳ": 1701,
      "ῴ": 1702,
      "ῶ": 1703,
      "ῷ": 1704,
      "​": 1705,
      "‌": 1706,
      "‍": 1707,
      "‎": 1708,
      "‏": 1709,
      "‐": 1710,
      "‑": 1711,
      "‒": 1712,
      "–": 1713,
      "—": 1714,
      "―": 1715,
      "‘": 1716,
      "’": 1717,
      "‚": 1718,
      "‛": 1719,
      "“": 1720,
      "”": 1721,
      "„": 1722,
      "‟": 1723,
      "†": 1724,
      "‡": 1725,
      "•": 1726,
      "․": 1727,
      "‥": 1728,
      "…": 1729,
      "‧": 1730,
      "‪": 1731,
      "‫": 1732,
      "‬": 1733,
      "‭": 1734,
      "‰": 1735,
      "′": 1736,
      "″": 1737,
      "‵": 1738,
      "‶": 1739,
      "‸": 1740,
      "‹": 1741,
      "›": 1742,
      "※": 1743,
      "‼": 1744,
      "‽": 1745,
      "‾": 1746,
      "‿": 1747,
      "⁂": 1748,
      "⁃": 1749,
      "⁄": 1750,
      "⁉": 1751,
      "⁋": 1752,
      "⁍": 1753,
      "⁎": 1754,
      "⁝": 1755,
      "⁞": 1756,
      "⁠": 1757,
      "⁨": 1758,
      "⁩": 1759,
      "⁪": 1760,
      "⁯": 1761,
      "⁰": 1762,
      "⁴": 1763,
      "⁺": 1764,
      "⁻": 1765,
      "⁾": 1766,
      "ⁿ": 1767,
      "₀": 1768,
      "₁": 1769,
      "₂": 1770,
      "₃": 1771,
      "₅": 1772,
      "₆": 1773,
      "₇": 1774,
      "₈": 1775,
      "₋": 1776,
      "₍": 1777,
      "₎": 1778,
      "ₐ": 1779,
      "ₑ": 1780,
      "ₒ": 1781,
      "ₓ": 1782,
      "ₘ": 1783,
      "ₛ": 1784,
      "ₜ": 1785,
      "₡": 1786,
      "₤": 1787,
      "₥": 1788,
      "₦": 1789,
      "₩": 1790,
      "₪": 1791,
      "₫": 1792,
      "€": 1793,
      "₭": 1794,
      "₮": 1795,
      "₱": 1796,
      "₲": 1797,
      "₳": 1798,
      "₹": 1799,
      "₺": 1800,
      "₽": 1801,
      "₿": 1802,
      "⃒": 1803,
      "⃗": 1804,
      "⃘": 1805,
      "⃛": 1806,
      "⃠": 1807,
      "⃡": 1808,
      "⃣": 1809,
      "℃": 1810,
      "℅": 1811,
      "ℊ": 1812,
      "ℍ": 1813,
      "ℐ": 1814,
      "ℒ": 1815,
      "ℓ": 1816,
      "ℕ": 1817,
      "№": 1818,
      "℗": 1819,
      "ℚ": 1820,
      "ℛ": 1821,
      "ℝ": 1822,
      "℠": 1823,
      "™": 1824,
      "ℤ": 1825,
      "ℯ": 1826,
      "ℰ": 1827,
      "ℳ": 1828,
      "ℵ": 1829,
      "ℹ": 1830,
      "⅃": 1831,
      "⅄": 1832,
      "ⅅ": 1833,
      "ⅎ": 1834,
      "⅓": 1835,
      "⅔": 1836,
      "⅛": 1837,
      "ⅰ": 1838,
      "ⅱ": 1839,
      "ⅴ": 1840,
      "ⅸ": 1841,
      "ↀ": 1842,
      "ↂ": 1843,
      "ↄ": 1844,
      "←": 1845,
      "↑": 1846,
      "→": 1847,
      "↓": 1848,
      "↔": 1849,
      "↕": 1850,
      "↖": 1851,
      "↗": 1852,
      "↘": 1853,
      "↙": 1854,
      "↝": 1855,
      "↩": 1856,
      "↪": 1857,
      "↳": 1858,
      "↼": 1859,
      "⇀": 1860,
      "⇂": 1861,
      "⇅": 1862,
      "⇈": 1863,
      "⇏": 1864,
      "⇐": 1865,
      "⇒": 1866,
      "⇔": 1867,
      "⇢": 1868,
      "⇧": 1869,
      "∀": 1870,
      "∂": 1871,
      "∃": 1872,
      "∅": 1873,
      "∆": 1874,
      "∇": 1875,
      "∈": 1876,
      "∎": 1877,
      "∏": 1878,
      "∑": 1879,
      "−": 1880,
      "∕": 1881,
      "∗": 1882,
      "∘": 1883,
      "∙": 1884,
      "√": 1885,
      "∝": 1886,
      "∞": 1887,
      "∠": 1888,
      "∣": 1889,
      "∤": 1890,
      "∧": 1891,
      "∨": 1892,
      "∩": 1893,
      "∪": 1894,
      "∫": 1895,
      "∭": 1896,
      "∯": 1897,
      "∴": 1898,
      "∵": 1899,
      "∷": 1900,
      "∼": 1901,
      "≃": 1902,
      "≅": 1903,
      "≈": 1904,
      "≒": 1905,
      "≖": 1906,
      "≜": 1907,
      "≠": 1908,
      "≡": 1909,
      "≤": 1910,
      "≥": 1911,
      "≦": 1912,
      "≧": 1913,
      "⊂": 1914,
      "⊃": 1915,
      "⊆": 1916,
      "⊕": 1917,
      "⊖": 1918,
      "⊗": 1919,
      "⊙": 1920,
      "⊜": 1921,
      "⊥": 1922,
      "⊨": 1923,
      "⋂": 1924,
      "⋃": 1925,
      "⋅": 1926,
      "⋆": 1927,
      "⋋": 1928,
      "⋏": 1929,
      "⋯": 1930,
      "⌂": 1931,
      "⌐": 1932,
      "⌒": 1933,
      "⌓": 1934,
      "⌔": 1935,
      "⌗": 1936,
      "⌘": 1937,
      "⌚": 1938,
      "⌛": 1939,
      "⌢": 1940,
      "⌣": 1941,
      "⌥": 1942,
      "⌨": 1943,
      "⍋": 1944,
      "⍘": 1945,
      "⍜": 1946,
      "⍨": 1947,
      "⍸": 1948,
      "⎓": 1949,
      "⎚": 1950,
      "⎜": 1951,
      "⎝": 1952,
      "⎠": 1953,
      "⎡": 1954,
      "⎣": 1955,
      "⎧": 1956,
      "⎫": 1957,
      "⎯": 1958,
      "⏐": 1959,
      "⏒": 1960,
      "⏩": 1961,
      "⏪": 1962,
      "⏫": 1963,
      "⏬": 1964,
      "⏰": 1965,
      "⏱": 1966,
      "⏲": 1967,
      "⏳": 1968,
      "⏸": 1969,
      "⏹": 1970,
      "⏺": 1971,
      "␤": 1972,
      "⑁": 1973,
      "⑅": 1974,
      "①": 1975,
      "②": 1976,
      "③": 1977,
      "④": 1978,
      "⑤": 1979,
      "⑥": 1980,
      "⑦": 1981,
      "⑧": 1982,
      "⑨": 1983,
      "⑩": 1984,
      "⑪": 1985,
      "⑫": 1986,
      "⑬": 1987,
      "⑭": 1988,
      "⑮": 1989,
      "⑯": 1990,
      "⑰": 1991,
      "⑱": 1992,
      "⑲": 1993,
      "⑳": 1994,
      "ⓒ": 1995,
      "ⓓ": 1996,
      "ⓔ": 1997,
      "ⓕ": 1998,
      "ⓖ": 1999,
      "ⓗ": 2000,
      "ⓘ": 2001,
      "ⓛ": 2002,
      "ⓜ": 2003,
      "ⓝ": 2004,
      "ⓞ": 2005,
      "ⓟ": 2006,
      "ⓡ": 2007,
      "ⓢ": 2008,
      "ⓣ": 2009,
      "ⓧ": 2010,
      "ⓨ": 2011,
      "⓫": 2012,
      "⓬": 2013,
      "⓭": 2014,
      "⓮": 2015,
      "⓯": 2016,
      "⓱": 2017,
      "⓸": 2018,
      "─": 2019,
      "━": 2020,
      "│": 2021,
      "┃": 2022,
      "┈": 2023,
      "┌": 2024,
      "┎": 2025,
      "┏": 2026,
      "┐": 2027,
      "┒": 2028,
      "┓": 2029,
      "└": 2030,
      "┗": 2031,
      "┘": 2032,
      "┛": 2033,
      "├": 2034,
      "┠": 2035,
      "┤": 2036,
      "┬": 2037,
      "┳": 2038,
      "┴": 2039,
      "┻": 2040,
      "┼": 2041,
      "═": 2042,
      "║": 2043,
      "╔": 2044,
      "╗": 2045,
      "╚": 2046,
      "╝": 2047,
      "╣": 2048,
      "╤": 2049,
      "╥": 2050,
      "╦": 2051,
      "╬": 2052,
      "╭": 2053,
      "╮": 2054,
      "╯": 2055,
      "╰": 2056,
      "╱": 2057,
      "╲": 2058,
      "╹": 2059,
      "▀": 2060,
      "▁": 2061,
      "▂": 2062,
      "▃": 2063,
      "▄": 2064,
      "▅": 2065,
      "▆": 2066,
      "▇": 2067,
      "█": 2068,
      "▉": 2069,
      "▌": 2070,
      "▏": 2071,
      "▐": 2072,
      "░": 2073,
      "▒": 2074,
      "▓": 2075,
      "▔": 2076,
      "■": 2077,
      "□": 2078,
      "▣": 2079,
      "▤": 2080,
      "▥": 2081,
      "▨": 2082,
      "▪": 2083,
      "▫": 2084,
      "▭": 2085,
      "▯": 2086,
      "▰": 2087,
      "▲": 2088,
      "△": 2089,
      "▶": 2090,
      "▷": 2091,
      "▸": 2092,
      "►": 2093,
      "▼": 2094,
      "▽": 2095,
      "▾": 2096,
      "▿": 2097,
      "◀": 2098,
      "◂": 2099,
      "◄": 2100,
      "◆": 2101,
      "◇": 2102,
      "◉": 2103,
      "◊": 2104,
      "○": 2105,
      "◌": 2106,
      "◍": 2107,
      "◎": 2108,
      "●": 2109,
      "◐": 2110,
      "◑": 2111,
      "◒": 2112,
      "◔": 2113,
      "◕": 2114,
      "◖": 2115,
      "◗": 2116,
      "◜": 2117,
      "◝": 2118,
      "◞": 2119,
      "◟": 2120,
      "◠": 2121,
      "◡": 2122,
      "◢": 2123,
      "◣": 2124,
      "◤": 2125,
      "◥": 2126,
      "◦": 2127,
      "◯": 2128,
      "◺": 2129,
      "◻": 2130,
      "◼": 2131,
      "◽": 2132,
      "◾": 2133,
      "◿": 2134,
      "☀": 2135,
      "☁": 2136,
      "☂": 2137,
      "☃": 2138,
      "☄": 2139,
      "★": 2140,
      "☆": 2141,
      "☇": 2142,
      "☉": 2143,
      "☋": 2144,
      "☎": 2145,
      "☏": 2146,
      "☐": 2147,
      "☑": 2148,
      "☒": 2149,
      "☓": 2150,
      "☔": 2151,
      "☕": 2152,
      "☘": 2153,
      "☚": 2154,
      "☛": 2155,
      "☜": 2156,
      "☝": 2157,
      "☞": 2158,
      "☟": 2159,
      "☠": 2160,
      "☡": 2161,
      "☢": 2162,
      "☣": 2163,
      "☭": 2164,
      "☮": 2165,
      "☯": 2166,
      "☰": 2167,
      "☱": 2168,
      "☲": 2169,
      "☴": 2170,
      "☶": 2171,
      "☸": 2172,
      "☹": 2173,
      "☺": 2174,
      "☻": 2175,
      "☼": 2176,
      "☽": 2177,
      "☾": 2178,
      "♀": 2179,
      "♂": 2180,
      "♆": 2181,
      "♈": 2182,
      "♊": 2183,
      "♋": 2184,
      "♍": 2185,
      "♏": 2186,
      "♑": 2187,
      "♒": 2188,
      "♓": 2189,
      "♔": 2190,
      "♕": 2191,
      "♖": 2192,
      "♗": 2193,
      "♘": 2194,
      "♙": 2195,
      "♚": 2196,
      "♛": 2197,
      "♜": 2198,
      "♝": 2199,
      "♞": 2200,
      "♟": 2201,
      "♠": 2202,
      "♡": 2203,
      "♢": 2204,
      "♣": 2205,
      "♤": 2206,
      "♥": 2207,
      "♦": 2208,
      "♧": 2209,
      "♨": 2210,
      "♩": 2211,
      "♪": 2212,
      "♫": 2213,
      "♬": 2214,
      "♭": 2215,
      "♮": 2216,
      "♯": 2217,
      "♱": 2218,
      "♻": 2219,
      "♿": 2220,
      "⚀": 2221,
      "⚁": 2222,
      "⚂": 2223,
      "⚃": 2224,
      "⚄": 2225,
      "⚅": 2226,
      "⚆": 2227,
      "⚈": 2228,
      "⚐": 2229,
      "⚑": 2230,
      "⚒": 2231,
      "⚓": 2232,
      "⚔": 2233,
      "⚕": 2234,
      "⚖": 2235,
      "⚗": 2236,
      "⚙": 2237,
      "⚛": 2238,
      "⚜": 2239,
      "⚠": 2240,
      "⚡": 2241,
      "⚧": 2242,
      "⚪": 2243,
      "⚫": 2244,
      "⚰": 2245,
      "⚱": 2246,
      "⚸": 2247,
      "⚽": 2248,
      "⚾": 2249,
      "⚿": 2250,
      "⛄": 2251,
      "⛅": 2252,
      "⛇": 2253,
      "⛈": 2254,
      "⛎": 2255,
      "⛏": 2256,
      "⛑": 2257,
      "⛓": 2258,
      "⛔": 2259,
      "⛦": 2260,
      "⛧": 2261,
      "⛩": 2262,
      "⛪": 2263,
      "⛰": 2264,
      "⛱": 2265,
      "⛲": 2266,
      "⛳": 2267,
      "⛵": 2268,
      "⛷": 2269,
      "⛸": 2270,
      "⛹": 2271,
      "⛺": 2272,
      "⛽": 2273,
      "✂": 2274,
      "✅": 2275,
      "✈": 2276,
      "✊": 2277,
      "✋": 2278,
      "✌": 2279,
      "✍": 2280,
      "✎": 2281,
      "✏": 2282,
      "✓": 2283,
      "✔": 2284,
      "✖": 2285,
      "✗": 2286,
      "✘": 2287,
      "✝": 2288,
      "✡": 2289,
      "✧": 2290,
      "✨": 2291,
      "✩": 2292,
      "✪": 2293,
      "✭": 2294,
      "✮": 2295,
      "✰": 2296,
      "✳": 2297,
      "✴": 2298,
      "✽": 2299,
      "✾": 2300,
      "✿": 2301,
      "❀": 2302,
      "❁": 2303,
      "❂": 2304,
      "❄": 2305,
      "❅": 2306,
      "❇": 2307,
      "❉": 2308,
      "❊": 2309,
      "❋": 2310,
      "❌": 2311,
      "❍": 2312,
      "❎": 2313,
      "❓": 2314,
      "❔": 2315,
      "❕": 2316,
      "❖": 2317,
      "❗": 2318,
      "❛": 2319,
      "❣": 2320,
      "❤": 2321,
      "❥": 2322,
      "❯": 2323,
      "❶": 2324,
      "❷": 2325,
      "❿": 2326,
      "➊": 2327,
      "➋": 2328,
      "➌": 2329,
      "➍": 2330,
      "➎": 2331,
      "➏": 2332,
      "➐": 2333,
      "➑": 2334,
      "➒": 2335,
      "➓": 2336,
      "➔": 2337,
      "➕": 2338,
      "➗": 2339,
      "➝": 2340,
      "➞": 2341,
      "➡": 2342,
      "➣": 2343,
      "➤": 2344,
      "➥": 2345,
      "➰": 2346,
      "➿": 2347,
      "⟂": 2348,
      "⟘": 2349,
      "⟨": 2350,
      "⟩": 2351,
      "⠀": 2352,
      "⠁": 2353,
      "⠂": 2354,
      "⠃": 2355,
      "⠄": 2356,
      "⠅": 2357,
      "⠇": 2358,
      "⠈": 2359,
      "⠉": 2360,
      "⠊": 2361,
      "⠋": 2362,
      "⠍": 2363,
      "⠎": 2364,
      "⠏": 2365,
      "⠑": 2366,
      "⠓": 2367,
      "⠕": 2368,
      "⠖": 2369,
      "⠗": 2370,
      "⠘": 2371,
      "⠙": 2372,
      "⠚": 2373,
      "⠛": 2374,
      "⠝": 2375,
      "⠞": 2376,
      "⠟": 2377,
      "⠠": 2378,
      "⠥": 2379,
      "⠦": 2380,
      "⠧": 2381,
      "⠭": 2382,
      "⠳": 2383,
      "⠶": 2384,
      "⠸": 2385,
      "⠹": 2386,
      "⠺": 2387,
      "⠻": 2388,
      "⠼": 2389,
      "⠽": 2390,
      "⠿": 2391,
      "⡀": 2392,
      "⡄": 2393,
      "⡆": 2394,
      "⡇": 2395,
      "⡏": 2396,
      "⡐": 2397,
      "⡜": 2398,
      "⡞": 2399,
      "⡟": 2400,
      "⡤": 2401,
      "⡰": 2402,
      "⡴": 2403,
      "⡶": 2404,
      "⡼": 2405,
      "⡾": 2406,
      "⡿": 2407,
      "⢀": 2408,
      "⢁": 2409,
      "⢊": 2410,
      "⢋": 2411,
      "⢠": 2412,
      "⢣": 2413,
      "⢮": 2414,
      "⢰": 2415,
      "⢷": 2416,
      "⢸": 2417,
      "⢹": 2418,
      "⢻": 2419,
      "⢿": 2420,
      "⣀": 2421,
      "⣄": 2422,
      "⣆": 2423,
      "⣇": 2424,
      "⣟": 2425,
      "⣠": 2426,
      "⣡": 2427,
      "⣤": 2428,
      "⣦": 2429,
      "⣧": 2430,
      "⣰": 2431,
      "⣴": 2432,
      "⣶": 2433,
      "⣷": 2434,
      "⣸": 2435,
      "⣼": 2436,
      "⣾": 2437,
      "⣿": 2438,
      "⤴": 2439,
      "⤵": 2440,
      "⦁": 2441,
      "⦶": 2442,
      "⦿": 2443,
      "⧅": 2444,
      "⨀": 2445,
      "⩽": 2446,
      "⩾": 2447,
      "⬅": 2448,
      "⬆": 2449,
      "⬇": 2450,
      "⬛": 2451,
      "⬜": 2452,
      "⬟": 2453,
      "⭐": 2454,
      "⭕": 2455,
      "⯭": 2456,
      "ⱥ": 2457,
      "ⱨ": 2458,
      "ⲁ": 2459,
      "ⲉ": 2460,
      "ⲗ": 2461,
      "ⲛ": 2462,
      "ⲟ": 2463,
      "ⲡ": 2464,
      "ⲣ": 2465,
      "ⲥ": 2466,
      "ⲫ": 2467,
      "ⲱ": 2468,
      "⸎": 2469,
      "⸔": 2470,
      "⸟": 2471,
      "⸮": 2472,
      "、": 2473,
      "。": 2474,
      "〃": 2475,
      "々": 2476,
      "〆": 2477,
      "〇": 2478,
      "〈": 2479,
      "〉": 2480,
      "《": 2481,
      "》": 2482,
      "「": 2483,
      "」": 2484,
      "『": 2485,
      "』": 2486,
      "【": 2487,
      "】": 2488,
      "〒": 2489,
      "〔": 2490,
      "〕": 2491,
      "〖": 2492,
      "〗": 2493,
      "〜": 2494,
      "〰": 2495,
      "〽": 2496,
      "ぁ": 2497,
      "あ": 2498,
      "ぃ": 2499,
      "い": 2500,
      "ぅ": 2501,
      "う": 2502,
      "ぇ": 2503,
      "え": 2504,
      "ぉ": 2505,
      "お": 2506,
      "か": 2507,
      "が": 2508,
      "き": 2509,
      "ぎ": 2510,
      "く": 2511,
      "ぐ": 2512,
      "け": 2513,
      "げ": 2514,
      "こ": 2515,
      "ご": 2516,
      "さ": 2517,
      "ざ": 2518,
      "し": 2519,
      "じ": 2520,
      "す": 2521,
      "ず": 2522,
      "せ": 2523,
      "ぜ": 2524,
      "そ": 2525,
      "ぞ": 2526,
      "た": 2527,
      "だ": 2528,
      "ち": 2529,
      "ぢ": 2530,
      "っ": 2531,
      "つ": 2532,
      "づ": 2533,
      "て": 2534,
      "で": 2535,
      "と": 2536,
      "ど": 2537,
      "な": 2538,
      "に": 2539,
      "ぬ": 2540,
      "ね": 2541,
      "の": 2542,
      "は": 2543,
      "ば": 2544,
      "ぱ": 2545,
      "ひ": 2546,
      "び": 2547,
      "ぴ": 2548,
      "ふ": 2549,
      "ぶ": 2550,
      "ぷ": 2551,
      "へ": 2552,
      "べ": 2553,
      "ぺ": 2554,
      "ほ": 2555,
      "ぼ": 2556,
      "ぽ": 2557,
      "ま": 2558,
      "み": 2559,
      "む": 2560,
      "め": 2561,
      "も": 2562,
      "ゃ": 2563,
      "や": 2564,
      "ゅ": 2565,
      "ゆ": 2566,
      "ょ": 2567,
      "よ": 2568,
      "ら": 2569,
      "り": 2570,
      "る": 2571,
      "れ": 2572,
      "ろ": 2573,
      "ゎ": 2574,
      "わ": 2575,
      "ゐ": 2576,
      "を": 2577,
      "ん": 2578,
      "゙": 2579,
      "゚": 2580,
      "゛": 2581,
      "゜": 2582,
      "ゝ": 2583,
      "ゞ": 2584,
      "ゟ": 2585,
      "ァ": 2586,
      "ア": 2587,
      "ィ": 2588,
      "イ": 2589,
      "ゥ": 2590,
      "ウ": 2591,
      "ェ": 2592,
      "エ": 2593,
      "ォ": 2594,
      "オ": 2595,
      "カ": 2596,
      "ガ": 2597,
      "キ": 2598,
      "ギ": 2599,
      "ク": 2600,
      "グ": 2601,
      "ケ": 2602,
      "ゲ": 2603,
      "コ": 2604,
      "ゴ": 2605,
      "サ": 2606,
      "ザ": 2607,
      "シ": 2608,
      "ジ": 2609,
      "ス": 2610,
      "ズ": 2611,
      "セ": 2612,
      "ゼ": 2613,
      "ソ": 2614,
      "ゾ": 2615,
      "タ": 2616,
      "ダ": 2617,
      "チ": 2618,
      "ッ": 2619,
      "ツ": 2620,
      "ヅ": 2621,
      "テ": 2622,
      "デ": 2623,
      "ト": 2624,
      "ド": 2625,
      "ナ": 2626,
      "ニ": 2627,
      "ヌ": 2628,
      "ネ": 2629,
      "ノ": 2630,
      "ハ": 2631,
      "バ": 2632,
      "パ": 2633,
      "ヒ": 2634,
      "ビ": 2635,
      "ピ": 2636,
      "フ": 2637,
      "ブ": 2638,
      "プ": 2639,
      "ヘ": 2640,
      "ベ": 2641,
      "ペ": 2642,
      "ホ": 2643,
      "ボ": 2644,
      "ポ": 2645,
      "マ": 2646,
      "ミ": 2647,
      "ム": 2648,
      "メ": 2649,
      "モ": 2650,
      "ャ": 2651,
      "ヤ": 2652,
      "ュ": 2653,
      "ユ": 2654,
      "ョ": 2655,
      "ヨ": 2656,
      "ラ": 2657,
      "リ": 2658,
      "ル": 2659,
      "レ": 2660,
      "ロ": 2661,
      "ヮ": 2662,
      "ワ": 2663,
      "ヲ": 2664,
      "ン": 2665,
      "ヴ": 2666,
      "ヶ": 2667,
      "・": 2668,
      "ー": 2669,
      "ヽ": 2670,
      "ヾ": 2671,
      "ㄅ": 2672,
      "ㄆ": 2673,
      "ㄇ": 2674,
      "ㄈ": 2675,
      "ㄉ": 2676,
      "ㄊ": 2677,
      "ㄋ": 2678,
      "ㄌ": 2679,
      "ㄍ": 2680,
      "ㄎ": 2681,
      "ㄏ": 2682,
      "ㄓ": 2683,
      "ㄟ": 2684,
      "ㄣ": 2685,
      "ㄧ": 2686,
      "ㄨ": 2687,
      "ㄱ": 2688,
      "ㄲ": 2689,
      "ㄴ": 2690,
      "ㄷ": 2691,
      "ㄸ": 2692,
      "ㄹ": 2693,
      "ㅁ": 2694,
      "ㅂ": 2695,
      "ㅃ": 2696,
      "ㅅ": 2697,
      "ㅆ": 2698,
      "ㅇ": 2699,
      "ㅈ": 2700,
      "ㅉ": 2701,
      "ㅊ": 2702,
      "ㅋ": 2703,
      "ㅌ": 2704,
      "ㅍ": 2705,
      "ㅎ": 2706,
      "ㅏ": 2707,
      "ㅐ": 2708,
      "ㅓ": 2709,
      "ㅔ": 2710,
      "ㅗ": 2711,
      "ㅜ": 2712,
      "ㅠ": 2713,
      "ㅡ": 2714,
      "ㅣ": 2715,
      "ㅤ": 2716,
      "ㅿ": 2717,
      "ㆁ": 2718,
      "㇏": 2719,
      "㊗": 2720,
      "㊙": 2721,
      "㋡": 2722,
      "㌢": 2723,
      "㌧": 2724,
      "㍉": 2725,
      "㍑": 2726,
      "㍗": 2727,
      "㎞": 2728,
      "一": 2729,
      "丁": 2730,
      "七": 2731,
      "万": 2732,
      "丈": 2733,
      "三": 2734,
      "上": 2735,
      "下": 2736,
      "不": 2737,
      "与": 2738,
      "且": 2739,
      "世": 2740,
      "丘": 2741,
      "业": 2742,
      "东": 2743,
      "丝": 2744,
      "両": 2745,
      "两": 2746,
      "並": 2747,
      "个": 2748,
      "中": 2749,
      "串": 2750,
      "丶": 2751,
      "丸": 2752,
      "丹": 2753,
      "为": 2754,
      "主": 2755,
      "丼": 2756,
      "丿": 2757,
      "乀": 2758,
      "乁": 2759,
      "乃": 2760,
      "乄": 2761,
      "久": 2762,
      "么": 2763,
      "义": 2764,
      "之": 2765,
      "乎": 2766,
      "乏": 2767,
      "乐": 2768,
      "乒": 2769,
      "乓": 2770,
      "乗": 2771,
      "乙": 2772,
      "乜": 2773,
      "九": 2774,
      "也": 2775,
      "习": 2776,
      "书": 2777,
      "买": 2778,
      "乱": 2779,
      "乳": 2780,
      "乾": 2781,
      "亀": 2782,
      "了": 2783,
      "予": 2784,
      "争": 2785,
      "事": 2786,
      "二": 2787,
      "于": 2788,
      "云": 2789,
      "互": 2790,
      "五": 2791,
      "井": 2792,
      "亘": 2793,
      "亚": 2794,
      "些": 2795,
      "亜": 2796,
      "亞": 2797,
      "亡": 2798,
      "交": 2799,
      "产": 2800,
      "享": 2801,
      "京": 2802,
      "亮": 2803,
      "亲": 2804,
      "人": 2805,
      "亿": 2806,
      "什": 2807,
      "仁": 2808,
      "仄": 2809,
      "仅": 2810,
      "仆": 2811,
      "今": 2812,
      "介": 2813,
      "从": 2814,
      "仏": 2815,
      "仕": 2816,
      "他": 2817,
      "付": 2818,
      "仙": 2819,
      "代": 2820,
      "令": 2821,
      "以": 2822,
      "们": 2823,
      "仮": 2824,
      "仰": 2825,
      "仲": 2826,
      "件": 2827,
      "价": 2828,
      "任": 2829,
      "份": 2830,
      "企": 2831,
      "伊": 2832,
      "伏": 2833,
      "伐": 2834,
      "休": 2835,
      "众": 2836,
      "伙": 2837,
      "会": 2838,
      "伝": 2839,
      "伟": 2840,
      "传": 2841,
      "伦": 2842,
      "伯": 2843,
      "伴": 2844,
      "伸": 2845,
      "伺": 2846,
      "似": 2847,
      "伽": 2848,
      "佃": 2849,
      "但": 2850,
      "位": 2851,
      "低": 2852,
      "住": 2853,
      "佐": 2854,
      "体": 2855,
      "何": 2856,
      "余": 2857,
      "佛": 2858,
      "作": 2859,
      "佞": 2860,
      "你": 2861,
      "佢": 2862,
      "佬": 2863,
      "佳": 2864,
      "併": 2865,
      "使": 2866,
      "來": 2867,
      "例": 2868,
      "侍": 2869,
      "侘": 2870,
      "供": 2871,
      "依": 2872,
      "価": 2873,
      "侪": 2874,
      "侬": 2875,
      "侮": 2876,
      "侯": 2877,
      "侵": 2878,
      "便": 2879,
      "係": 2880,
      "促": 2881,
      "俄": 2882,
      "俊": 2883,
      "俗": 2884,
      "保": 2885,
      "信": 2886,
      "俣": 2887,
      "修": 2888,
      "俯": 2889,
      "俵": 2890,
      "俺": 2891,
      "倉": 2892,
      "個": 2893,
      "倍": 2894,
      "們": 2895,
      "倒": 2896,
      "候": 2897,
      "借": 2898,
      "倣": 2899,
      "値": 2900,
      "倫": 2901,
      "倹": 2902,
      "偉": 2903,
      "偏": 2904,
      "做": 2905,
      "停": 2906,
      "健": 2907,
      "側": 2908,
      "偵": 2909,
      "偶": 2910,
      "偽": 2911,
      "傍": 2912,
      "傘": 2913,
      "備": 2914,
      "催": 2915,
      "傲": 2916,
      "傳": 2917,
      "債": 2918,
      "傷": 2919,
      "傻": 2920,
      "傾": 2921,
      "僅": 2922,
      "僇": 2923,
      "働": 2924,
      "像": 2925,
      "僕": 2926,
      "僚": 2927,
      "僧": 2928,
      "價": 2929,
      "儀": 2930,
      "億": 2931,
      "儒": 2932,
      "償": 2933,
      "優": 2934,
      "儲": 2935,
      "儼": 2936,
      "儿": 2937,
      "兀": 2938,
      "元": 2939,
      "兄": 2940,
      "充": 2941,
      "兆": 2942,
      "先": 2943,
      "光": 2944,
      "克": 2945,
      "免": 2946,
      "兎": 2947,
      "児": 2948,
      "兒": 2949,
      "兔": 2950,
      "党": 2951,
      "兜": 2952,
      "入": 2953,
      "全": 2954,
      "兩": 2955,
      "八": 2956,
      "公": 2957,
      "六": 2958,
      "兰": 2959,
      "共": 2960,
      "关": 2961,
      "兴": 2962,
      "兵": 2963,
      "其": 2964,
      "具": 2965,
      "典": 2966,
      "兹": 2967,
      "兼": 2968,
      "内": 2969,
      "円": 2970,
      "冊": 2971,
      "再": 2972,
      "冒": 2973,
      "冖": 2974,
      "冗": 2975,
      "写": 2976,
      "军": 2977,
      "冠": 2978,
      "冤": 2979,
      "冥": 2980,
      "冨": 2981,
      "冬": 2982,
      "冰": 2983,
      "冲": 2984,
      "冴": 2985,
      "冷": 2986,
      "凄": 2987,
      "准": 2988,
      "凉": 2989,
      "凌": 2990,
      "凍": 2991,
      "凑": 2992,
      "凛": 2993,
      "凝": 2994,
      "几": 2995,
      "凡": 2996,
      "処": 2997,
      "凰": 2998,
      "凶": 2999,
      "凸": 3000,
      "凹": 3001,
      "出": 3002,
      "击": 3003,
      "刀": 3004,
      "刃": 3005,
      "分": 3006,
      "切": 3007,
      "刈": 3008,
      "刊": 3009,
      "刎": 3010,
      "刑": 3011,
      "列": 3012,
      "刘": 3013,
      "则": 3014,
      "创": 3015,
      "初": 3016,
      "判": 3017,
      "別": 3018,
      "利": 3019,
      "别": 3020,
      "到": 3021,
      "制": 3022,
      "刷": 3023,
      "券": 3024,
      "刺": 3025,
      "刻": 3026,
      "則": 3027,
      "削": 3028,
      "前": 3029,
      "剑": 3030,
      "剖": 3031,
      "剛": 3032,
      "剣": 3033,
      "剤": 3034,
      "剥": 3035,
      "剧": 3036,
      "副": 3037,
      "剰": 3038,
      "割": 3039,
      "創": 3040,
      "剿": 3041,
      "劇": 3042,
      "劍": 3043,
      "力": 3044,
      "办": 3045,
      "功": 3046,
      "加": 3047,
      "务": 3048,
      "劣": 3049,
      "动": 3050,
      "助": 3051,
      "努": 3052,
      "劲": 3053,
      "労": 3054,
      "効": 3055,
      "劾": 3056,
      "势": 3057,
      "勃": 3058,
      "勅": 3059,
      "勇": 3060,
      "勉": 3061,
      "勋": 3062,
      "動": 3063,
      "勘": 3064,
      "務": 3065,
      "勝": 3066,
      "募": 3067,
      "勢": 3068,
      "勤": 3069,
      "勧": 3070,
      "勿": 3071,
      "匂": 3072,
      "包": 3073,
      "匈": 3074,
      "化": 3075,
      "北": 3076,
      "匚": 3077,
      "匠": 3078,
      "匹": 3079,
      "区": 3080,
      "医": 3081,
      "匿": 3082,
      "十": 3083,
      "千": 3084,
      "升": 3085,
      "午": 3086,
      "半": 3087,
      "卍": 3088,
      "华": 3089,
      "协": 3090,
      "卐": 3091,
      "卑": 3092,
      "卒": 3093,
      "卓": 3094,
      "協": 3095,
      "单": 3096,
      "卖": 3097,
      "南": 3098,
      "単": 3099,
      "博": 3100,
      "卜": 3101,
      "占": 3102,
      "卡": 3103,
      "卧": 3104,
      "卫": 3105,
      "卯": 3106,
      "印": 3107,
      "危": 3108,
      "即": 3109,
      "却": 3110,
      "卵": 3111,
      "卷": 3112,
      "卸": 3113,
      "厂": 3114,
      "厄": 3115,
      "厅": 3116,
      "历": 3117,
      "厚": 3118,
      "原": 3119,
      "厦": 3120,
      "厨": 3121,
      "厳": 3122,
      "厶": 3123,
      "去": 3124,
      "参": 3125,
      "參": 3126,
      "又": 3127,
      "及": 3128,
      "友": 3129,
      "双": 3130,
      "反": 3131,
      "収": 3132,
      "发": 3133,
      "叔": 3134,
      "取": 3135,
      "受": 3136,
      "变": 3137,
      "叙": 3138,
      "叡": 3139,
      "口": 3140,
      "古": 3141,
      "句": 3142,
      "另": 3143,
      "叩": 3144,
      "只": 3145,
      "叫": 3146,
      "召": 3147,
      "可": 3148,
      "台": 3149,
      "史": 3150,
      "右": 3151,
      "叶": 3152,
      "号": 3153,
      "司": 3154,
      "吃": 3155,
      "各": 3156,
      "合": 3157,
      "吉": 3158,
      "吊": 3159,
      "同": 3160,
      "名": 3161,
      "后": 3162,
      "吐": 3163,
      "向": 3164,
      "吗": 3165,
      "君": 3166,
      "吠": 3167,
      "否": 3168,
      "吧": 3169,
      "含": 3170,
      "听": 3171,
      "吳": 3172,
      "吴": 3173,
      "吸": 3174,
      "吹": 3175,
      "吾": 3176,
      "呀": 3177,
      "呂": 3178,
      "呆": 3179,
      "呈": 3180,
      "呉": 3181,
      "告": 3182,
      "呜": 3183,
      "呟": 3184,
      "呢": 3185,
      "周": 3186,
      "呪": 3187,
      "味": 3188,
      "呼": 3189,
      "命": 3190,
      "咀": 3191,
      "咁": 3192,
      "和": 3193,
      "咎": 3194,
      "咕": 3195,
      "咖": 3196,
      "咗": 3197,
      "咥": 3198,
      "咬": 3199,
      "咲": 3200,
      "哀": 3201,
      "品": 3202,
      "哇": 3203,
      "哈": 3204,
      "哉": 3205,
      "哋": 3206,
      "員": 3207,
      "哥": 3208,
      "哨": 3209,
      "哪": 3210,
      "哭": 3211,
      "哲": 3212,
      "哺": 3213,
      "唄": 3214,
      "唆": 3215,
      "唇": 3216,
      "唐": 3217,
      "唔": 3218,
      "售": 3219,
      "唯": 3220,
      "唱": 3221,
      "啃": 3222,
      "商": 3223,
      "啊": 3224,
      "問": 3225,
      "啓": 3226,
      "啞": 3227,
      "啥": 3228,
      "啦": 3229,
      "啲": 3230,
      "喂": 3231,
      "喃": 3232,
      "善": 3233,
      "喉": 3234,
      "喊": 3235,
      "喋": 3236,
      "喏": 3237,
      "喚": 3238,
      "喜": 3239,
      "喧": 3240,
      "喩": 3241,
      "喪": 3242,
      "喫": 3243,
      "單": 3244,
      "喰": 3245,
      "喵": 3246,
      "営": 3247,
      "喻": 3248,
      "喽": 3249,
      "嗅": 3250,
      "嗎": 3251,
      "嗜": 3252,
      "嗯": 3253,
      "嗷": 3254,
      "嘅": 3255,
      "嘆": 3256,
      "嘉": 3257,
      "嘔": 3258,
      "嘗": 3259,
      "嘘": 3260,
      "嘢": 3261,
      "嘩": 3262,
      "嘲": 3263,
      "噂": 3264,
      "噌": 3265,
      "噐": 3266,
      "噛": 3267,
      "器": 3268,
      "噴": 3269,
      "嚟": 3270,
      "嚼": 3271,
      "囃": 3272,
      "囚": 3273,
      "四": 3274,
      "回": 3275,
      "因": 3276,
      "团": 3277,
      "団": 3278,
      "囧": 3279,
      "园": 3280,
      "囮": 3281,
      "困": 3282,
      "囲": 3283,
      "図": 3284,
      "固": 3285,
      "国": 3286,
      "國": 3287,
      "圏": 3288,
      "園": 3289,
      "圓": 3290,
      "團": 3291,
      "土": 3292,
      "圣": 3293,
      "圧": 3294,
      "在": 3295,
      "圭": 3296,
      "地": 3297,
      "圳": 3298,
      "址": 3299,
      "坂": 3300,
      "均": 3301,
      "坊": 3302,
      "坎": 3303,
      "块": 3304,
      "坚": 3305,
      "坡": 3306,
      "垂": 3307,
      "型": 3308,
      "垢": 3309,
      "垣": 3310,
      "垮": 3311,
      "埃": 3312,
      "埋": 3313,
      "城": 3314,
      "域": 3315,
      "執": 3316,
      "培": 3317,
      "基": 3318,
      "埼": 3319,
      "堀": 3320,
      "堂": 3321,
      "堅": 3322,
      "堕": 3323,
      "堪": 3324,
      "堯": 3325,
      "報": 3326,
      "場": 3327,
      "堺": 3328,
      "塊": 3329,
      "塔": 3330,
      "塗": 3331,
      "塘": 3332,
      "塚": 3333,
      "塞": 3334,
      "塩": 3335,
      "填": 3336,
      "塵": 3337,
      "塾": 3338,
      "境": 3339,
      "墓": 3340,
      "増": 3341,
      "墜": 3342,
      "增": 3343,
      "墟": 3344,
      "墨": 3345,
      "墳": 3346,
      "壁": 3347,
      "壇": 3348,
      "壊": 3349,
      "壌": 3350,
      "壓": 3351,
      "士": 3352,
      "壮": 3353,
      "声": 3354,
      "壱": 3355,
      "売": 3356,
      "壺": 3357,
      "处": 3358,
      "备": 3359,
      "変": 3360,
      "复": 3361,
      "夏": 3362,
      "夕": 3363,
      "外": 3364,
      "多": 3365,
      "夜": 3366,
      "夢": 3367,
      "大": 3368,
      "天": 3369,
      "太": 3370,
      "夫": 3371,
      "央": 3372,
      "失": 3373,
      "头": 3374,
      "夹": 3375,
      "奄": 3376,
      "奇": 3377,
      "奈": 3378,
      "奉": 3379,
      "奏": 3380,
      "契": 3381,
      "奔": 3382,
      "套": 3383,
      "奢": 3384,
      "奥": 3385,
      "奨": 3386,
      "奪": 3387,
      "奮": 3388,
      "女": 3389,
      "奴": 3390,
      "奶": 3391,
      "她": 3392,
      "好": 3393,
      "如": 3394,
      "妃": 3395,
      "妄": 3396,
      "妈": 3397,
      "妊": 3398,
      "妖": 3399,
      "妙": 3400,
      "妥": 3401,
      "妨": 3402,
      "妬": 3403,
      "妹": 3404,
      "妻": 3405,
      "姆": 3406,
      "姉": 3407,
      "始": 3408,
      "姐": 3409,
      "姑": 3410,
      "姓": 3411,
      "委": 3412,
      "姦": 3413,
      "姨": 3414,
      "姫": 3415,
      "姬": 3416,
      "姿": 3417,
      "威": 3418,
      "娉": 3419,
      "娘": 3420,
      "娠": 3421,
      "娯": 3422,
      "婆": 3423,
      "婉": 3424,
      "婚": 3425,
      "婦": 3426,
      "婭": 3427,
      "婷": 3428,
      "媚": 3429,
      "媛": 3430,
      "媽": 3431,
      "嫁": 3432,
      "嫉": 3433,
      "嫌": 3434,
      "嫐": 3435,
      "嬉": 3436,
      "嬢": 3437,
      "嬤": 3438,
      "嬲": 3439,
      "嬴": 3440,
      "子": 3441,
      "孔": 3442,
      "孕": 3443,
      "字": 3444,
      "存": 3445,
      "孙": 3446,
      "孝": 3447,
      "季": 3448,
      "孤": 3449,
      "学": 3450,
      "孩": 3451,
      "孫": 3452,
      "學": 3453,
      "它": 3454,
      "宅": 3455,
      "宇": 3456,
      "守": 3457,
      "安": 3458,
      "完": 3459,
      "宏": 3460,
      "宗": 3461,
      "官": 3462,
      "宙": 3463,
      "定": 3464,
      "宛": 3465,
      "宜": 3466,
      "宝": 3467,
      "实": 3468,
      "実": 3469,
      "客": 3470,
      "宣": 3471,
      "室": 3472,
      "宮": 3473,
      "宰": 3474,
      "害": 3475,
      "宴": 3476,
      "宵": 3477,
      "家": 3478,
      "容": 3479,
      "宽": 3480,
      "宿": 3481,
      "寂": 3482,
      "寄": 3483,
      "密": 3484,
      "富": 3485,
      "寐": 3486,
      "寒": 3487,
      "寓": 3488,
      "寛": 3489,
      "寝": 3490,
      "寞": 3491,
      "察": 3492,
      "寡": 3493,
      "實": 3494,
      "寧": 3495,
      "審": 3496,
      "寬": 3497,
      "寵": 3498,
      "寸": 3499,
      "对": 3500,
      "寺": 3501,
      "寻": 3502,
      "対": 3503,
      "寿": 3504,
      "封": 3505,
      "専": 3506,
      "射": 3507,
      "将": 3508,
      "將": 3509,
      "專": 3510,
      "尊": 3511,
      "尋": 3512,
      "對": 3513,
      "導": 3514,
      "小": 3515,
      "少": 3516,
      "尔": 3517,
      "尖": 3518,
      "尚": 3519,
      "尝": 3520,
      "就": 3521,
      "尸": 3522,
      "尹": 3523,
      "尻": 3524,
      "尼": 3525,
      "尽": 3526,
      "尾": 3527,
      "尿": 3528,
      "局": 3529,
      "屁": 3530,
      "层": 3531,
      "屄": 3532,
      "居": 3533,
      "屈": 3534,
      "届": 3535,
      "屋": 3536,
      "屌": 3537,
      "屍": 3538,
      "屎": 3539,
      "屑": 3540,
      "屓": 3541,
      "展": 3542,
      "属": 3543,
      "層": 3544,
      "履": 3545,
      "屬": 3546,
      "屮": 3547,
      "山": 3548,
      "岁": 3549,
      "岐": 3550,
      "岗": 3551,
      "岛": 3552,
      "岡": 3553,
      "岩": 3554,
      "岳": 3555,
      "岸": 3556,
      "峙": 3557,
      "峠": 3558,
      "峡": 3559,
      "峰": 3560,
      "島": 3561,
      "崇": 3562,
      "崎": 3563,
      "崖": 3564,
      "崛": 3565,
      "崩": 3566,
      "嵌": 3567,
      "嵐": 3568,
      "嶋": 3569,
      "川": 3570,
      "州": 3571,
      "巡": 3572,
      "巣": 3573,
      "工": 3574,
      "左": 3575,
      "巧": 3576,
      "巨": 3577,
      "差": 3578,
      "己": 3579,
      "已": 3580,
      "巴": 3581,
      "巷": 3582,
      "巻": 3583,
      "巾": 3584,
      "市": 3585,
      "布": 3586,
      "师": 3587,
      "希": 3588,
      "帕": 3589,
      "帖": 3590,
      "帘": 3591,
      "帝": 3592,
      "带": 3593,
      "師": 3594,
      "席": 3595,
      "帮": 3596,
      "帯": 3597,
      "帰": 3598,
      "帳": 3599,
      "帶": 3600,
      "常": 3601,
      "帽": 3602,
      "幅": 3603,
      "幌": 3604,
      "幕": 3605,
      "幡": 3606,
      "幣": 3607,
      "幫": 3608,
      "干": 3609,
      "平": 3610,
      "年": 3611,
      "并": 3612,
      "幸": 3613,
      "幹": 3614,
      "幻": 3615,
      "幼": 3616,
      "幽": 3617,
      "幾": 3618,
      "广": 3619,
      "庁": 3620,
      "広": 3621,
      "庆": 3622,
      "庇": 3623,
      "床": 3624,
      "序": 3625,
      "库": 3626,
      "应": 3627,
      "底": 3628,
      "店": 3629,
      "府": 3630,
      "度": 3631,
      "座": 3632,
      "庫": 3633,
      "庭": 3634,
      "庶": 3635,
      "康": 3636,
      "庸": 3637,
      "廃": 3638,
      "廉": 3639,
      "廊": 3640,
      "廣": 3641,
      "延": 3642,
      "廷": 3643,
      "建": 3644,
      "开": 3645,
      "弁": 3646,
      "弄": 3647,
      "弊": 3648,
      "式": 3649,
      "弐": 3650,
      "弓": 3651,
      "引": 3652,
      "弗": 3653,
      "弘": 3654,
      "弟": 3655,
      "张": 3656,
      "弥": 3657,
      "弦": 3658,
      "弱": 3659,
      "張": 3660,
      "強": 3661,
      "强": 3662,
      "弾": 3663,
      "彈": 3664,
      "归": 3665,
      "当": 3666,
      "录": 3667,
      "彡": 3668,
      "形": 3669,
      "彤": 3670,
      "彥": 3671,
      "彦": 3672,
      "彩": 3673,
      "彫": 3674,
      "彬": 3675,
      "彰": 3676,
      "影": 3677,
      "彷": 3678,
      "役": 3679,
      "彼": 3680,
      "彿": 3681,
      "往": 3682,
      "征": 3683,
      "径": 3684,
      "待": 3685,
      "很": 3686,
      "徊": 3687,
      "律": 3688,
      "後": 3689,
      "徒": 3690,
      "従": 3691,
      "得": 3692,
      "徘": 3693,
      "從": 3694,
      "御": 3695,
      "復": 3696,
      "循": 3697,
      "微": 3698,
      "徳": 3699,
      "徴": 3700,
      "德": 3701,
      "徹": 3702,
      "心": 3703,
      "必": 3704,
      "忍": 3705,
      "忖": 3706,
      "志": 3707,
      "忘": 3708,
      "忙": 3709,
      "応": 3710,
      "忠": 3711,
      "快": 3712,
      "念": 3713,
      "忽": 3714,
      "怎": 3715,
      "怒": 3716,
      "怕": 3717,
      "怖": 3718,
      "怜": 3719,
      "思": 3720,
      "怠": 3721,
      "急": 3722,
      "性": 3723,
      "怨": 3724,
      "怪": 3725,
      "怯": 3726,
      "总": 3727,
      "恋": 3728,
      "恐": 3729,
      "恒": 3730,
      "恣": 3731,
      "恥": 3732,
      "恨": 3733,
      "恩": 3734,
      "恭": 3735,
      "息": 3736,
      "恰": 3737,
      "恵": 3738,
      "恶": 3739,
      "悌": 3740,
      "悍": 3741,
      "悔": 3742,
      "悟": 3743,
      "悠": 3744,
      "患": 3745,
      "悦": 3746,
      "您": 3747,
      "悩": 3748,
      "悪": 3749,
      "悲": 3750,
      "情": 3751,
      "惑": 3752,
      "惚": 3753,
      "惜": 3754,
      "惠": 3755,
      "惣": 3756,
      "惨": 3757,
      "惯": 3758,
      "惰": 3759,
      "想": 3760,
      "惹": 3761,
      "愁": 3762,
      "愉": 3763,
      "意": 3764,
      "愕": 3765,
      "愚": 3766,
      "愛": 3767,
      "感": 3768,
      "愿": 3769,
      "慄": 3770,
      "慈": 3771,
      "態": 3772,
      "慌": 3773,
      "慎": 3774,
      "慘": 3775,
      "慢": 3776,
      "慣": 3777,
      "慧": 3778,
      "慮": 3779,
      "慰": 3780,
      "慶": 3781,
      "憂": 3782,
      "憎": 3783,
      "憐": 3784,
      "憑": 3785,
      "憚": 3786,
      "憤": 3787,
      "憧": 3788,
      "憩": 3789,
      "憫": 3790,
      "憲": 3791,
      "憶": 3792,
      "憾": 3793,
      "懂": 3794,
      "懇": 3795,
      "應": 3796,
      "懐": 3797,
      "懲": 3798,
      "懷": 3799,
      "懸": 3800,
      "懺": 3801,
      "成": 3802,
      "我": 3803,
      "戒": 3804,
      "或": 3805,
      "战": 3806,
      "戚": 3807,
      "戦": 3808,
      "戯": 3809,
      "戰": 3810,
      "戴": 3811,
      "户": 3812,
      "戸": 3813,
      "戻": 3814,
      "房": 3815,
      "所": 3816,
      "扈": 3817,
      "扉": 3818,
      "手": 3819,
      "才": 3820,
      "打": 3821,
      "払": 3822,
      "扬": 3823,
      "扱": 3824,
      "扶": 3825,
      "批": 3826,
      "找": 3827,
      "承": 3828,
      "技": 3829,
      "抄": 3830,
      "把": 3831,
      "抑": 3832,
      "抒": 3833,
      "投": 3834,
      "抖": 3835,
      "抗": 3836,
      "折": 3837,
      "抜": 3838,
      "択": 3839,
      "护": 3840,
      "报": 3841,
      "披": 3842,
      "抱": 3843,
      "抵": 3844,
      "抹": 3845,
      "押": 3846,
      "抽": 3847,
      "担": 3848,
      "拉": 3849,
      "拍": 3850,
      "拐": 3851,
      "拒": 3852,
      "拓": 3853,
      "拔": 3854,
      "拖": 3855,
      "拗": 3856,
      "拘": 3857,
      "拙": 3858,
      "招": 3859,
      "拜": 3860,
      "拝": 3861,
      "拠": 3862,
      "拡": 3863,
      "拥": 3864,
      "括": 3865,
      "拭": 3866,
      "拳": 3867,
      "拶": 3868,
      "拷": 3869,
      "拼": 3870,
      "拾": 3871,
      "拿": 3872,
      "持": 3873,
      "指": 3874,
      "挑": 3875,
      "挙": 3876,
      "挟": 3877,
      "挨": 3878,
      "挫": 3879,
      "振": 3880,
      "挽": 3881,
      "挿": 3882,
      "捏": 3883,
      "捕": 3884,
      "捗": 3885,
      "捜": 3886,
      "换": 3887,
      "捧": 3888,
      "捨": 3889,
      "据": 3890,
      "捲": 3891,
      "捻": 3892,
      "掃": 3893,
      "授": 3894,
      "掌": 3895,
      "排": 3896,
      "掘": 3897,
      "掛": 3898,
      "掟": 3899,
      "採": 3900,
      "探": 3901,
      "接": 3902,
      "控": 3903,
      "推": 3904,
      "措": 3905,
      "掲": 3906,
      "掴": 3907,
      "掻": 3908,
      "揃": 3909,
      "揄": 3910,
      "揉": 3911,
      "描": 3912,
      "提": 3913,
      "揖": 3914,
      "揚": 3915,
      "換": 3916,
      "握": 3917,
      "揮": 3918,
      "援": 3919,
      "揶": 3920,
      "揺": 3921,
      "損": 3922,
      "搬": 3923,
      "搭": 3924,
      "携": 3925,
      "搾": 3926,
      "摂": 3927,
      "摆": 3928,
      "摘": 3929,
      "摩": 3930,
      "摯": 3931,
      "摺": 3932,
      "撃": 3933,
      "撑": 3934,
      "撒": 3935,
      "撚": 3936,
      "撤": 3937,
      "撩": 3938,
      "播": 3939,
      "撮": 3940,
      "撰": 3941,
      "撲": 3942,
      "撼": 3943,
      "擁": 3944,
      "擊": 3945,
      "操": 3946,
      "擦": 3947,
      "擬": 3948,
      "攫": 3949,
      "支": 3950,
      "改": 3951,
      "攻": 3952,
      "放": 3953,
      "政": 3954,
      "故": 3955,
      "敌": 3956,
      "敏": 3957,
      "救": 3958,
      "敗": 3959,
      "教": 3960,
      "敢": 3961,
      "散": 3962,
      "敦": 3963,
      "敬": 3964,
      "数": 3965,
      "整": 3966,
      "敵": 3967,
      "敷": 3968,
      "斂": 3969,
      "文": 3970,
      "斌": 3971,
      "斎": 3972,
      "斐": 3973,
      "斑": 3974,
      "斗": 3975,
      "料": 3976,
      "斜": 3977,
      "斡": 3978,
      "斤": 3979,
      "斧": 3980,
      "斬": 3981,
      "断": 3982,
      "斯": 3983,
      "新": 3984,
      "方": 3985,
      "於": 3986,
      "施": 3987,
      "旁": 3988,
      "旅": 3989,
      "旋": 3990,
      "族": 3991,
      "旗": 3992,
      "无": 3993,
      "既": 3994,
      "日": 3995,
      "旦": 3996,
      "旧": 3997,
      "旨": 3998,
      "早": 3999,
      "旬": 4000,
      "旭": 4001,
      "时": 4002,
      "昂": 4003,
      "昇": 4004,
      "昌": 4005,
      "明": 4006,
      "易": 4007,
      "昔": 4008,
      "昕": 4009,
      "星": 4010,
      "映": 4011,
      "春": 4012,
      "昧": 4013,
      "昨": 4014,
      "昭": 4015,
      "是": 4016,
      "昵": 4017,
      "昼": 4018,
      "時": 4019,
      "晃": 4020,
      "晋": 4021,
      "晒": 4022,
      "晚": 4023,
      "晟": 4024,
      "晩": 4025,
      "普": 4026,
      "景": 4027,
      "晴": 4028,
      "晶": 4029,
      "智": 4030,
      "暁": 4031,
      "暇": 4032,
      "暖": 4033,
      "暗": 4034,
      "暦": 4035,
      "暫": 4036,
      "暮": 4037,
      "暴": 4038,
      "曇": 4039,
      "曖": 4040,
      "曜": 4041,
      "曝": 4042,
      "曲": 4043,
      "更": 4044,
      "書": 4045,
      "曼": 4046,
      "曾": 4047,
      "替": 4048,
      "最": 4049,
      "會": 4050,
      "月": 4051,
      "有": 4052,
      "朋": 4053,
      "服": 4054,
      "朔": 4055,
      "朗": 4056,
      "望": 4057,
      "朝": 4058,
      "期": 4059,
      "木": 4060,
      "未": 4061,
      "末": 4062,
      "本": 4063,
      "札": 4064,
      "朴": 4065,
      "机": 4066,
      "杀": 4067,
      "杉": 4068,
      "李": 4069,
      "杏": 4070,
      "材": 4071,
      "村": 4072,
      "杓": 4073,
      "杖": 4074,
      "杜": 4075,
      "束": 4076,
      "条": 4077,
      "来": 4078,
      "杯": 4079,
      "東": 4080,
      "松": 4081,
      "板": 4082,
      "极": 4083,
      "析": 4084,
      "枕": 4085,
      "林": 4086,
      "枚": 4087,
      "果": 4088,
      "枠": 4089,
      "枣": 4090,
      "枯": 4091,
      "架": 4092,
      "柄": 4093,
      "柏": 4094,
      "某": 4095,
      "柒": 4096,
      "染": 4097,
      "柔": 4098,
      "柘": 4099,
      "查": 4100,
      "柱": 4101,
      "柴": 4102,
      "柵": 4103,
      "査": 4104,
      "柿": 4105,
      "栄": 4106,
      "标": 4107,
      "栋": 4108,
      "树": 4109,
      "栖": 4110,
      "栗": 4111,
      "栞": 4112,
      "校": 4113,
      "株": 4114,
      "样": 4115,
      "核": 4116,
      "根": 4117,
      "格": 4118,
      "栽": 4119,
      "桁": 4120,
      "桃": 4121,
      "案": 4122,
      "桌": 4123,
      "桐": 4124,
      "桜": 4125,
      "桝": 4126,
      "桨": 4127,
      "梅": 4128,
      "梓": 4129,
      "梗": 4130,
      "條": 4131,
      "梢": 4132,
      "梦": 4133,
      "梨": 4134,
      "梭": 4135,
      "梯": 4136,
      "械": 4137,
      "梱": 4138,
      "梶": 4139,
      "棄": 4140,
      "棋": 4141,
      "棒": 4142,
      "棚": 4143,
      "棟": 4144,
      "森": 4145,
      "棲": 4146,
      "椅": 4147,
      "植": 4148,
      "椎": 4149,
      "椒": 4150,
      "椛": 4151,
      "検": 4152,
      "椰": 4153,
      "椿": 4154,
      "楓": 4155,
      "楕": 4156,
      "楞": 4157,
      "楠": 4158,
      "業": 4159,
      "楯": 4160,
      "極": 4161,
      "楼": 4162,
      "楽": 4163,
      "概": 4164,
      "榄": 4165,
      "榎": 4166,
      "榜": 4167,
      "榮": 4168,
      "榴": 4169,
      "構": 4170,
      "槌": 4171,
      "槍": 4172,
      "様": 4173,
      "槽": 4174,
      "樂": 4175,
      "標": 4176,
      "模": 4177,
      "樣": 4178,
      "権": 4179,
      "横": 4180,
      "樫": 4181,
      "樸": 4182,
      "樹": 4183,
      "樽": 4184,
      "橄": 4185,
      "橋": 4186,
      "機": 4187,
      "橫": 4188,
      "檎": 4189,
      "檻": 4190,
      "櫻": 4191,
      "欄": 4192,
      "欅": 4193,
      "權": 4194,
      "欠": 4195,
      "次": 4196,
      "欢": 4197,
      "欣": 4198,
      "欧": 4199,
      "欲": 4200,
      "欸": 4201,
      "欺": 4202,
      "歌": 4203,
      "歐": 4204,
      "歓": 4205,
      "歡": 4206,
      "止": 4207,
      "正": 4208,
      "此": 4209,
      "步": 4210,
      "武": 4211,
      "歩": 4212,
      "歪": 4213,
      "歯": 4214,
      "歲": 4215,
      "歳": 4216,
      "歴": 4217,
      "歹": 4218,
      "死": 4219,
      "殆": 4220,
      "殊": 4221,
      "残": 4222,
      "殖": 4223,
      "殴": 4224,
      "段": 4225,
      "殺": 4226,
      "殻": 4227,
      "殿": 4228,
      "毀": 4229,
      "毁": 4230,
      "母": 4231,
      "毎": 4232,
      "每": 4233,
      "毒": 4234,
      "比": 4235,
      "毕": 4236,
      "毛": 4237,
      "毫": 4238,
      "氏": 4239,
      "民": 4240,
      "气": 4241,
      "気": 4242,
      "氣": 4243,
      "水": 4244,
      "氷": 4245,
      "永": 4246,
      "汁": 4247,
      "求": 4248,
      "汇": 4249,
      "汉": 4250,
      "汎": 4251,
      "汐": 4252,
      "汗": 4253,
      "汚": 4254,
      "汝": 4255,
      "江": 4256,
      "池": 4257,
      "汰": 4258,
      "汲": 4259,
      "決": 4260,
      "汽": 4261,
      "沈": 4262,
      "沒": 4263,
      "沖": 4264,
      "沙": 4265,
      "没": 4266,
      "沢": 4267,
      "河": 4268,
      "沸": 4269,
      "油": 4270,
      "治": 4271,
      "沼": 4272,
      "沿": 4273,
      "況": 4274,
      "泄": 4275,
      "泉": 4276,
      "泊": 4277,
      "法": 4278,
      "泛": 4279,
      "泡": 4280,
      "波": 4281,
      "泣": 4282,
      "泥": 4283,
      "注": 4284,
      "泰": 4285,
      "泳": 4286,
      "洋": 4287,
      "洒": 4288,
      "洗": 4289,
      "洛": 4290,
      "洞": 4291,
      "津": 4292,
      "洪": 4293,
      "洲": 4294,
      "活": 4295,
      "派": 4296,
      "流": 4297,
      "浄": 4298,
      "浅": 4299,
      "浙": 4300,
      "浜": 4301,
      "浦": 4302,
      "浩": 4303,
      "浪": 4304,
      "浮": 4305,
      "浴": 4306,
      "海": 4307,
      "浸": 4308,
      "消": 4309,
      "涙": 4310,
      "涯": 4311,
      "液": 4312,
      "涼": 4313,
      "淀": 4314,
      "淒": 4315,
      "淘": 4316,
      "淡": 4317,
      "淫": 4318,
      "深": 4319,
      "混": 4320,
      "淹": 4321,
      "添": 4322,
      "清": 4323,
      "渇": 4324,
      "済": 4325,
      "渉": 4326,
      "渋": 4327,
      "減": 4328,
      "渠": 4329,
      "渡": 4330,
      "渣": 4331,
      "渦": 4332,
      "温": 4333,
      "測": 4334,
      "港": 4335,
      "游": 4336,
      "渾": 4337,
      "湖": 4338,
      "湧": 4339,
      "湯": 4340,
      "湾": 4341,
      "満": 4342,
      "源": 4343,
      "準": 4344,
      "溜": 4345,
      "溝": 4346,
      "溢": 4347,
      "溥": 4348,
      "溶": 4349,
      "溺": 4350,
      "滅": 4351,
      "滋": 4352,
      "滑": 4353,
      "滚": 4354,
      "滝": 4355,
      "滞": 4356,
      "满": 4357,
      "滤": 4358,
      "滨": 4359,
      "滲": 4360,
      "滴": 4361,
      "滷": 4362,
      "滸": 4363,
      "滿": 4364,
      "漁": 4365,
      "漂": 4366,
      "漆": 4367,
      "漉": 4368,
      "漏": 4369,
      "演": 4370,
      "漕": 4371,
      "漠": 4372,
      "漢": 4373,
      "漫": 4374,
      "漬": 4375,
      "潔": 4376,
      "潘": 4377,
      "潜": 4378,
      "潟": 4379,
      "潤": 4380,
      "潮": 4381,
      "潰": 4382,
      "澄": 4383,
      "澤": 4384,
      "澪": 4385,
      "澱": 4386,
      "澳": 4387,
      "激": 4388,
      "濁": 4389,
      "濃": 4390,
      "濡": 4391,
      "濫": 4392,
      "濯": 4393,
      "濱": 4394,
      "瀬": 4395,
      "灘": 4396,
      "灣": 4397,
      "火": 4398,
      "灭": 4399,
      "灯": 4400,
      "灰": 4401,
      "灵": 4402,
      "灼": 4403,
      "災": 4404,
      "炉": 4405,
      "炎": 4406,
      "炒": 4407,
      "炗": 4408,
      "炙": 4409,
      "炚": 4410,
      "炛": 4411,
      "炭": 4412,
      "炸": 4413,
      "点": 4414,
      "為": 4415,
      "炼": 4416,
      "烂": 4417,
      "烈": 4418,
      "烏": 4419,
      "烤": 4420,
      "烧": 4421,
      "热": 4422,
      "焉": 4423,
      "焔": 4424,
      "焚": 4425,
      "焜": 4426,
      "無": 4427,
      "焦": 4428,
      "然": 4429,
      "焼": 4430,
      "煌": 4431,
      "煙": 4432,
      "照": 4433,
      "煩": 4434,
      "煮": 4435,
      "煽": 4436,
      "熊": 4437,
      "熔": 4438,
      "熟": 4439,
      "熱": 4440,
      "燃": 4441,
      "燒": 4442,
      "燥": 4443,
      "燦": 4444,
      "燼": 4445,
      "燾": 4446,
      "爆": 4447,
      "爛": 4448,
      "爪": 4449,
      "爬": 4450,
      "爭": 4451,
      "爱": 4452,
      "爲": 4453,
      "爵": 4454,
      "父": 4455,
      "爷": 4456,
      "爸": 4457,
      "爺": 4458,
      "爽": 4459,
      "片": 4460,
      "版": 4461,
      "牌": 4462,
      "牙": 4463,
      "牛": 4464,
      "牡": 4465,
      "牢": 4466,
      "牧": 4467,
      "物": 4468,
      "牲": 4469,
      "特": 4470,
      "犠": 4471,
      "犬": 4472,
      "犯": 4473,
      "状": 4474,
      "狂": 4475,
      "狗": 4476,
      "狙": 4477,
      "狩": 4478,
      "独": 4479,
      "狭": 4480,
      "狼": 4481,
      "狽": 4482,
      "猛": 4483,
      "猟": 4484,
      "猥": 4485,
      "猩": 4486,
      "猫": 4487,
      "献": 4488,
      "猴": 4489,
      "猶": 4490,
      "猿": 4491,
      "獄": 4492,
      "獅": 4493,
      "獣": 4494,
      "獨": 4495,
      "獰": 4496,
      "獲": 4497,
      "獸": 4498,
      "玄": 4499,
      "率": 4500,
      "玉": 4501,
      "王": 4502,
      "玛": 4503,
      "玩": 4504,
      "玫": 4505,
      "环": 4506,
      "现": 4507,
      "玲": 4508,
      "玻": 4509,
      "珍": 4510,
      "珠": 4511,
      "班": 4512,
      "現": 4513,
      "球": 4514,
      "理": 4515,
      "琉": 4516,
      "琐": 4517,
      "琪": 4518,
      "琴": 4519,
      "瑋": 4520,
      "瑕": 4521,
      "瑞": 4522,
      "瑠": 4523,
      "瑰": 4524,
      "瑶": 4525,
      "璃": 4526,
      "璧": 4527,
      "環": 4528,
      "瓜": 4529,
      "瓶": 4530,
      "甄": 4531,
      "甘": 4532,
      "甜": 4533,
      "生": 4534,
      "產": 4535,
      "産": 4536,
      "甦": 4537,
      "用": 4538,
      "甭": 4539,
      "田": 4540,
      "由": 4541,
      "甲": 4542,
      "申": 4543,
      "电": 4544,
      "男": 4545,
      "町": 4546,
      "画": 4547,
      "畀": 4548,
      "界": 4549,
      "畏": 4550,
      "畑": 4551,
      "畔": 4552,
      "留": 4553,
      "畜": 4554,
      "畢": 4555,
      "略": 4556,
      "番": 4557,
      "畫": 4558,
      "異": 4559,
      "當": 4560,
      "畿": 4561,
      "疇": 4562,
      "疎": 4563,
      "疑": 4564,
      "疫": 4565,
      "疲": 4566,
      "疵": 4567,
      "疾": 4568,
      "病": 4569,
      "症": 4570,
      "痒": 4571,
      "痔": 4572,
      "痕": 4573,
      "痛": 4574,
      "痢": 4575,
      "痩": 4576,
      "痴": 4577,
      "痺": 4578,
      "療": 4579,
      "癌": 4580,
      "癒": 4581,
      "癖": 4582,
      "発": 4583,
      "登": 4584,
      "發": 4585,
      "白": 4586,
      "百": 4587,
      "的": 4588,
      "皆": 4589,
      "皇": 4590,
      "皮": 4591,
      "皿": 4592,
      "益": 4593,
      "盒": 4594,
      "盗": 4595,
      "盘": 4596,
      "盛": 4597,
      "盟": 4598,
      "監": 4599,
      "盤": 4600,
      "目": 4601,
      "盲": 4602,
      "直": 4603,
      "相": 4604,
      "盾": 4605,
      "省": 4606,
      "看": 4607,
      "県": 4608,
      "真": 4609,
      "眠": 4610,
      "眺": 4611,
      "眼": 4612,
      "眾": 4613,
      "着": 4614,
      "睡": 4615,
      "督": 4616,
      "瞞": 4617,
      "瞬": 4618,
      "瞳": 4619,
      "矛": 4620,
      "矢": 4621,
      "知": 4622,
      "短": 4623,
      "矮": 4624,
      "矯": 4625,
      "石": 4626,
      "砂": 4627,
      "研": 4628,
      "砕": 4629,
      "砥": 4630,
      "砦": 4631,
      "砲": 4632,
      "破": 4633,
      "硝": 4634,
      "硬": 4635,
      "确": 4636,
      "碌": 4637,
      "碗": 4638,
      "確": 4639,
      "磁": 4640,
      "磨": 4641,
      "礁": 4642,
      "礎": 4643,
      "示": 4644,
      "礼": 4645,
      "社": 4646,
      "祀": 4647,
      "祇": 4648,
      "祈": 4649,
      "祉": 4650,
      "祐": 4651,
      "祖": 4652,
      "祝": 4653,
      "神": 4654,
      "祥": 4655,
      "票": 4656,
      "祭": 4657,
      "禁": 4658,
      "禅": 4659,
      "禍": 4660,
      "福": 4661,
      "禧": 4662,
      "禮": 4663,
      "离": 4664,
      "禽": 4665,
      "禾": 4666,
      "禿": 4667,
      "秀": 4668,
      "私": 4669,
      "秋": 4670,
      "种": 4671,
      "科": 4672,
      "秒": 4673,
      "秘": 4674,
      "租": 4675,
      "秦": 4676,
      "称": 4677,
      "移": 4678,
      "稀": 4679,
      "程": 4680,
      "税": 4681,
      "稚": 4682,
      "種": 4683,
      "稱": 4684,
      "稲": 4685,
      "稻": 4686,
      "稼": 4687,
      "稿": 4688,
      "穂": 4689,
      "積": 4690,
      "穎": 4691,
      "穏": 4692,
      "穢": 4693,
      "穴": 4694,
      "究": 4695,
      "空": 4696,
      "穿": 4697,
      "突": 4698,
      "窃": 4699,
      "窓": 4700,
      "窟": 4701,
      "窪": 4702,
      "窮": 4703,
      "窯": 4704,
      "竄": 4705,
      "立": 4706,
      "站": 4707,
      "竜": 4708,
      "章": 4709,
      "童": 4710,
      "端": 4711,
      "競": 4712,
      "竹": 4713,
      "笑": 4714,
      "笔": 4715,
      "笛": 4716,
      "符": 4717,
      "笨": 4718,
      "第": 4719,
      "笹": 4720,
      "笼": 4721,
      "筆": 4722,
      "筈": 4723,
      "等": 4724,
      "筋": 4725,
      "筍": 4726,
      "筒": 4727,
      "答": 4728,
      "策": 4729,
      "简": 4730,
      "箇": 4731,
      "箋": 4732,
      "算": 4733,
      "管": 4734,
      "箱": 4735,
      "節": 4736,
      "範": 4737,
      "築": 4738,
      "篠": 4739,
      "篭": 4740,
      "篮": 4741,
      "簡": 4742,
      "簿": 4743,
      "籍": 4744,
      "籠": 4745,
      "米": 4746,
      "粉": 4747,
      "粋": 4748,
      "粒": 4749,
      "粗": 4750,
      "粘": 4751,
      "粛": 4752,
      "粵": 4753,
      "精": 4754,
      "糖": 4755,
      "糞": 4756,
      "糧": 4757,
      "糸": 4758,
      "糹": 4759,
      "系": 4760,
      "糾": 4761,
      "紀": 4762,
      "約": 4763,
      "紅": 4764,
      "紆": 4765,
      "紋": 4766,
      "納": 4767,
      "紐": 4768,
      "純": 4769,
      "紗": 4770,
      "紘": 4771,
      "紙": 4772,
      "級": 4773,
      "紛": 4774,
      "素": 4775,
      "紡": 4776,
      "索": 4777,
      "紫": 4778,
      "紬": 4779,
      "累": 4780,
      "細": 4781,
      "紳": 4782,
      "紹": 4783,
      "終": 4784,
      "組": 4785,
      "絆": 4786,
      "経": 4787,
      "結": 4788,
      "絞": 4789,
      "絡": 4790,
      "給": 4791,
      "統": 4792,
      "絲": 4793,
      "絵": 4794,
      "絶": 4795,
      "絹": 4796,
      "經": 4797,
      "継": 4798,
      "続": 4799,
      "綠": 4800,
      "維": 4801,
      "綱": 4802,
      "網": 4803,
      "綺": 4804,
      "綻": 4805,
      "綾": 4806,
      "綿": 4807,
      "緊": 4808,
      "総": 4809,
      "緑": 4810,
      "緒": 4811,
      "線": 4812,
      "締": 4813,
      "編": 4814,
      "緩": 4815,
      "緯": 4816,
      "練": 4817,
      "縁": 4818,
      "縄": 4819,
      "縛": 4820,
      "縞": 4821,
      "縦": 4822,
      "縫": 4823,
      "縮": 4824,
      "績": 4825,
      "繁": 4826,
      "繊": 4827,
      "繋": 4828,
      "繍": 4829,
      "織": 4830,
      "繕": 4831,
      "繫": 4832,
      "繰": 4833,
      "纂": 4834,
      "纟": 4835,
      "红": 4836,
      "约": 4837,
      "级": 4838,
      "纪": 4839,
      "纸": 4840,
      "线": 4841,
      "练": 4842,
      "组": 4843,
      "细": 4844,
      "织": 4845,
      "绍": 4846,
      "经": 4847,
      "绑": 4848,
      "结": 4849,
      "给": 4850,
      "络": 4851,
      "统": 4852,
      "绢": 4853,
      "绫": 4854,
      "绿": 4855,
      "缘": 4856,
      "缶": 4857,
      "网": 4858,
      "罗": 4859,
      "罠": 4860,
      "罪": 4861,
      "置": 4862,
      "罰": 4863,
      "署": 4864,
      "罵": 4865,
      "罹": 4866,
      "羅": 4867,
      "羊": 4868,
      "美": 4869,
      "羞": 4870,
      "群": 4871,
      "羨": 4872,
      "義": 4873,
      "羽": 4874,
      "翁": 4875,
      "翅": 4876,
      "翌": 4877,
      "習": 4878,
      "翔": 4879,
      "翠": 4880,
      "翰": 4881,
      "翻": 4882,
      "翼": 4883,
      "耀": 4884,
      "老": 4885,
      "考": 4886,
      "者": 4887,
      "而": 4888,
      "耐": 4889,
      "耕": 4890,
      "耗": 4891,
      "耳": 4892,
      "耶": 4893,
      "聊": 4894,
      "联": 4895,
      "聖": 4896,
      "聘": 4897,
      "聞": 4898,
      "聪": 4899,
      "聯": 4900,
      "聰": 4901,
      "聲": 4902,
      "聴": 4903,
      "職": 4904,
      "肆": 4905,
      "肇": 4906,
      "肉": 4907,
      "肌": 4908,
      "肏": 4909,
      "肚": 4910,
      "肛": 4911,
      "肝": 4912,
      "股": 4913,
      "肢": 4914,
      "肥": 4915,
      "肩": 4916,
      "肪": 4917,
      "肯": 4918,
      "育": 4919,
      "肺": 4920,
      "肿": 4921,
      "胃": 4922,
      "胆": 4923,
      "背": 4924,
      "胎": 4925,
      "胖": 4926,
      "胞": 4927,
      "胡": 4928,
      "胸": 4929,
      "能": 4930,
      "脂": 4931,
      "脅": 4932,
      "脆": 4933,
      "脇": 4934,
      "脈": 4935,
      "脑": 4936,
      "脚": 4937,
      "脫": 4938,
      "脱": 4939,
      "脳": 4940,
      "脸": 4941,
      "腋": 4942,
      "腐": 4943,
      "腕": 4944,
      "腩": 4945,
      "腫": 4946,
      "腰": 4947,
      "腸": 4948,
      "腹": 4949,
      "腺": 4950,
      "腿": 4951,
      "膀": 4952,
      "膏": 4953,
      "膚": 4954,
      "膜": 4955,
      "膝": 4956,
      "膠": 4957,
      "膣": 4958,
      "膨": 4959,
      "膳": 4960,
      "膵": 4961,
      "膿": 4962,
      "臂": 4963,
      "臆": 4964,
      "臉": 4965,
      "臓": 4966,
      "臘": 4967,
      "臣": 4968,
      "臨": 4969,
      "自": 4970,
      "臭": 4971,
      "至": 4972,
      "致": 4973,
      "臺": 4974,
      "臼": 4975,
      "與": 4976,
      "興": 4977,
      "舉": 4978,
      "舊": 4979,
      "舌": 4980,
      "舎": 4981,
      "舐": 4982,
      "舗": 4983,
      "舛": 4984,
      "舞": 4985,
      "舟": 4986,
      "航": 4987,
      "般": 4988,
      "船": 4989,
      "艦": 4990,
      "良": 4991,
      "艱": 4992,
      "色": 4993,
      "艶": 4994,
      "艸": 4995,
      "艺": 4996,
      "艾": 4997,
      "芋": 4998,
      "芝": 4999,
      "芬": 5000,
      "花": 5001,
      "芳": 5002,
      "芸": 5003,
      "芽": 5004,
      "苏": 5005,
      "苑": 5006,
      "苔": 5007,
      "苗": 5008,
      "若": 5009,
      "苦": 5010,
      "英": 5011,
      "苺": 5012,
      "茂": 5013,
      "茌": 5014,
      "茎": 5015,
      "茜": 5016,
      "茧": 5017,
      "茨": 5018,
      "茲": 5019,
      "茶": 5020,
      "草": 5021,
      "荒": 5022,
      "药": 5023,
      "荷": 5024,
      "荻": 5025,
      "莊": 5026,
      "莓": 5027,
      "莫": 5028,
      "莲": 5029,
      "莽": 5030,
      "菅": 5031,
      "菊": 5032,
      "菌": 5033,
      "菓": 5034,
      "菘": 5035,
      "菜": 5036,
      "華": 5037,
      "菱": 5038,
      "萄": 5039,
      "萌": 5040,
      "萎": 5041,
      "萝": 5042,
      "萢": 5043,
      "营": 5044,
      "萨": 5045,
      "萬": 5046,
      "落": 5047,
      "葉": 5048,
      "著": 5049,
      "葡": 5050,
      "葬": 5051,
      "葱": 5052,
      "葵": 5053,
      "蒔": 5054,
      "蒙": 5055,
      "蒲": 5056,
      "蒸": 5057,
      "蒼": 5058,
      "蓄": 5059,
      "蓋": 5060,
      "蓑": 5061,
      "蓝": 5062,
      "蓬": 5063,
      "蔑": 5064,
      "蔓": 5065,
      "蔚": 5066,
      "蔦": 5067,
      "蔵": 5068,
      "蔻": 5069,
      "蔽": 5070,
      "蕎": 5071,
      "蕭": 5072,
      "蕾": 5073,
      "薄": 5074,
      "薇": 5075,
      "薔": 5076,
      "薦": 5077,
      "薩": 5078,
      "薬": 5079,
      "藍": 5080,
      "藝": 5081,
      "藤": 5082,
      "藪": 5083,
      "藹": 5084,
      "蘇": 5085,
      "蘭": 5086,
      "虎": 5087,
      "虐": 5088,
      "虑": 5089,
      "虚": 5090,
      "號": 5091,
      "虫": 5092,
      "虹": 5093,
      "蚕": 5094,
      "蛆": 5095,
      "蛇": 5096,
      "蛋": 5097,
      "蛍": 5098,
      "蛙": 5099,
      "蛮": 5100,
      "蜂": 5101,
      "蜃": 5102,
      "蜜": 5103,
      "蝕": 5104,
      "蝗": 5105,
      "蝶": 5106,
      "融": 5107,
      "螨": 5108,
      "螳": 5109,
      "蟲": 5110,
      "蟹": 5111,
      "血": 5112,
      "衆": 5113,
      "行": 5114,
      "術": 5115,
      "街": 5116,
      "衛": 5117,
      "衝": 5118,
      "衡": 5119,
      "衣": 5120,
      "表": 5121,
      "衫": 5122,
      "衰": 5123,
      "衲": 5124,
      "袁": 5125,
      "袅": 5126,
      "袈": 5127,
      "袋": 5128,
      "袍": 5129,
      "被": 5130,
      "袭": 5131,
      "袴": 5132,
      "裁": 5133,
      "裂": 5134,
      "装": 5135,
      "裏": 5136,
      "裔": 5137,
      "裕": 5138,
      "補": 5139,
      "裝": 5140,
      "裟": 5141,
      "裡": 5142,
      "裤": 5143,
      "裨": 5144,
      "裸": 5145,
      "製": 5146,
      "裾": 5147,
      "褄": 5148,
      "複": 5149,
      "褐": 5150,
      "褒": 5151,
      "褲": 5152,
      "襲": 5153,
      "西": 5154,
      "要": 5155,
      "覆": 5156,
      "覇": 5157,
      "見": 5158,
      "規": 5159,
      "視": 5160,
      "覗": 5161,
      "覚": 5162,
      "覧": 5163,
      "親": 5164,
      "観": 5165,
      "觀": 5166,
      "见": 5167,
      "规": 5168,
      "觉": 5169,
      "角": 5170,
      "解": 5171,
      "触": 5172,
      "觸": 5173,
      "言": 5174,
      "訁": 5175,
      "訂": 5176,
      "計": 5177,
      "討": 5178,
      "訓": 5179,
      "託": 5180,
      "記": 5181,
      "訛": 5182,
      "訟": 5183,
      "訪": 5184,
      "設": 5185,
      "許": 5186,
      "訳": 5187,
      "訴": 5188,
      "診": 5189,
      "証": 5190,
      "詐": 5191,
      "評": 5192,
      "詞": 5193,
      "詠": 5194,
      "試": 5195,
      "詩": 5196,
      "詫": 5197,
      "詮": 5198,
      "詰": 5199,
      "話": 5200,
      "該": 5201,
      "詳": 5202,
      "詹": 5203,
      "誅": 5204,
      "誇": 5205,
      "誉": 5206,
      "誌": 5207,
      "認": 5208,
      "誓": 5209,
      "誕": 5210,
      "誘": 5211,
      "語": 5212,
      "誠": 5213,
      "誤": 5214,
      "說": 5215,
      "説": 5216,
      "読": 5217,
      "誰": 5218,
      "課": 5219,
      "誼": 5220,
      "調": 5221,
      "談": 5222,
      "請": 5223,
      "諏": 5224,
      "論": 5225,
      "諜": 5226,
      "諦": 5227,
      "諧": 5228,
      "諫": 5229,
      "諭": 5230,
      "諮": 5231,
      "諸": 5232,
      "謀": 5233,
      "謂": 5234,
      "謎": 5235,
      "謙": 5236,
      "講": 5237,
      "謝": 5238,
      "謡": 5239,
      "謬": 5240,
      "謳": 5241,
      "謹": 5242,
      "識": 5243,
      "譜": 5244,
      "警": 5245,
      "譯": 5246,
      "議": 5247,
      "譲": 5248,
      "護": 5249,
      "讀": 5250,
      "變": 5251,
      "讐": 5252,
      "讓": 5253,
      "讠": 5254,
      "订": 5255,
      "认": 5256,
      "让": 5257,
      "训": 5258,
      "议": 5259,
      "记": 5260,
      "讲": 5261,
      "许": 5262,
      "论": 5263,
      "访": 5264,
      "评": 5265,
      "识": 5266,
      "诉": 5267,
      "译": 5268,
      "试": 5269,
      "话": 5270,
      "语": 5271,
      "说": 5272,
      "请": 5273,
      "读": 5274,
      "课": 5275,
      "谁": 5276,
      "谈": 5277,
      "谊": 5278,
      "谍": 5279,
      "谕": 5280,
      "谢": 5281,
      "谷": 5282,
      "豆": 5283,
      "豊": 5284,
      "豚": 5285,
      "象": 5286,
      "豪": 5287,
      "豬": 5288,
      "豹": 5289,
      "貝": 5290,
      "貞": 5291,
      "負": 5292,
      "財": 5293,
      "貢": 5294,
      "貧": 5295,
      "貨": 5296,
      "販": 5297,
      "貪": 5298,
      "貫": 5299,
      "責": 5300,
      "貯": 5301,
      "貰": 5302,
      "貴": 5303,
      "貶": 5304,
      "買": 5305,
      "貸": 5306,
      "費": 5307,
      "貼": 5308,
      "貿": 5309,
      "賀": 5310,
      "賂": 5311,
      "賃": 5312,
      "賄": 5313,
      "資": 5314,
      "賊": 5315,
      "賎": 5316,
      "賑": 5317,
      "賓": 5318,
      "賛": 5319,
      "賞": 5320,
      "賠": 5321,
      "賢": 5322,
      "賣": 5323,
      "賤": 5324,
      "質": 5325,
      "賭": 5326,
      "購": 5327,
      "贄": 5328,
      "贈": 5329,
      "贋": 5330,
      "贏": 5331,
      "贔": 5332,
      "负": 5333,
      "财": 5334,
      "货": 5335,
      "购": 5336,
      "贵": 5337,
      "费": 5338,
      "贺": 5339,
      "赤": 5340,
      "赦": 5341,
      "走": 5342,
      "赳": 5343,
      "赴": 5344,
      "起": 5345,
      "趁": 5346,
      "超": 5347,
      "越": 5348,
      "趙": 5349,
      "趣": 5350,
      "趨": 5351,
      "足": 5352,
      "跁": 5353,
      "跋": 5354,
      "跑": 5355,
      "距": 5356,
      "跟": 5357,
      "跡": 5358,
      "跨": 5359,
      "跪": 5360,
      "路": 5361,
      "跳": 5362,
      "践": 5363,
      "踊": 5364,
      "踏": 5365,
      "踪": 5366,
      "蹂": 5367,
      "蹴": 5368,
      "躇": 5369,
      "躊": 5370,
      "躍": 5371,
      "躙": 5372,
      "身": 5373,
      "躾": 5374,
      "車": 5375,
      "軌": 5376,
      "軍": 5377,
      "軒": 5378,
      "軟": 5379,
      "転": 5380,
      "軸": 5381,
      "軽": 5382,
      "較": 5383,
      "載": 5384,
      "輔": 5385,
      "輝": 5386,
      "輩": 5387,
      "輪": 5388,
      "輸": 5389,
      "輻": 5390,
      "轄": 5391,
      "轟": 5392,
      "轢": 5393,
      "车": 5394,
      "轴": 5395,
      "轻": 5396,
      "载": 5397,
      "较": 5398,
      "辐": 5399,
      "输": 5400,
      "辛": 5401,
      "辞": 5402,
      "辟": 5403,
      "辣": 5404,
      "辱": 5405,
      "農": 5406,
      "边": 5407,
      "辺": 5408,
      "辻": 5409,
      "込": 5410,
      "辽": 5411,
      "达": 5412,
      "辿": 5413,
      "迂": 5414,
      "迅": 5415,
      "过": 5416,
      "迎": 5417,
      "运": 5418,
      "近": 5419,
      "返": 5420,
      "还": 5421,
      "这": 5422,
      "进": 5423,
      "远": 5424,
      "迟": 5425,
      "迦": 5426,
      "迪": 5427,
      "迫": 5428,
      "述": 5429,
      "迷": 5430,
      "追": 5431,
      "退": 5432,
      "送": 5433,
      "逃": 5434,
      "逆": 5435,
      "透": 5436,
      "逐": 5437,
      "途": 5438,
      "這": 5439,
      "通": 5440,
      "逝": 5441,
      "逞": 5442,
      "速": 5443,
      "造": 5444,
      "逢": 5445,
      "連": 5446,
      "逮": 5447,
      "週": 5448,
      "進": 5449,
      "逸": 5450,
      "逼": 5451,
      "逾": 5452,
      "遁": 5453,
      "遂": 5454,
      "遅": 5455,
      "遇": 5456,
      "遊": 5457,
      "運": 5458,
      "遍": 5459,
      "過": 5460,
      "道": 5461,
      "達": 5462,
      "違": 5463,
      "遙": 5464,
      "遜": 5465,
      "遠": 5466,
      "遣": 5467,
      "遥": 5468,
      "適": 5469,
      "遭": 5470,
      "遮": 5471,
      "遵": 5472,
      "遶": 5473,
      "遷": 5474,
      "選": 5475,
      "遺": 5476,
      "遽": 5477,
      "避": 5478,
      "還": 5479,
      "邊": 5480,
      "那": 5481,
      "邦": 5482,
      "邪": 5483,
      "邸": 5484,
      "郊": 5485,
      "郎": 5486,
      "郡": 5487,
      "部": 5488,
      "郭": 5489,
      "郵": 5490,
      "郷": 5491,
      "都": 5492,
      "鄙": 5493,
      "酉": 5494,
      "配": 5495,
      "酎": 5496,
      "酒": 5497,
      "酔": 5498,
      "酢": 5499,
      "酥": 5500,
      "酬": 5501,
      "酱": 5502,
      "酵": 5503,
      "酷": 5504,
      "酸": 5505,
      "醒": 5506,
      "醜": 5507,
      "醤": 5508,
      "醸": 5509,
      "釈": 5510,
      "釉": 5511,
      "里": 5512,
      "重": 5513,
      "野": 5514,
      "量": 5515,
      "金": 5516,
      "釒": 5517,
      "釘": 5518,
      "釜": 5519,
      "針": 5520,
      "釣": 5521,
      "鈍": 5522,
      "鈴": 5523,
      "鉄": 5524,
      "鉛": 5525,
      "鉱": 5526,
      "銀": 5527,
      "銃": 5528,
      "銅": 5529,
      "銘": 5530,
      "銭": 5531,
      "鋭": 5532,
      "鋼": 5533,
      "錆": 5534,
      "錐": 5535,
      "錠": 5536,
      "錢": 5537,
      "錯": 5538,
      "録": 5539,
      "鍋": 5540,
      "鍛": 5541,
      "鍵": 5542,
      "鎌": 5543,
      "鎖": 5544,
      "鎚": 5545,
      "鎧": 5546,
      "鎮": 5547,
      "鏡": 5548,
      "鐘": 5549,
      "鐡": 5550,
      "鑑": 5551,
      "钅": 5552,
      "钟": 5553,
      "银": 5554,
      "铺": 5555,
      "链": 5556,
      "锅": 5557,
      "错": 5558,
      "锻": 5559,
      "镇": 5560,
      "镜": 5561,
      "長": 5562,
      "长": 5563,
      "門": 5564,
      "閉": 5565,
      "開": 5566,
      "間": 5567,
      "関": 5568,
      "閣": 5569,
      "閥": 5570,
      "閲": 5571,
      "闇": 5572,
      "闊": 5573,
      "闘": 5574,
      "關": 5575,
      "门": 5576,
      "问": 5577,
      "间": 5578,
      "闻": 5579,
      "闽": 5580,
      "阅": 5581,
      "阔": 5582,
      "阜": 5583,
      "队": 5584,
      "阪": 5585,
      "防": 5586,
      "阳": 5587,
      "阻": 5588,
      "阿": 5589,
      "陀": 5590,
      "际": 5591,
      "陆": 5592,
      "陈": 5593,
      "降": 5594,
      "限": 5595,
      "陛": 5596,
      "陝": 5597,
      "院": 5598,
      "陣": 5599,
      "除": 5600,
      "陥": 5601,
      "陪": 5602,
      "陰": 5603,
      "陳": 5604,
      "陵": 5605,
      "陶": 5606,
      "陸": 5607,
      "険": 5608,
      "陽": 5609,
      "隅": 5610,
      "隆": 5611,
      "隈": 5612,
      "隊": 5613,
      "隋": 5614,
      "階": 5615,
      "随": 5616,
      "隔": 5617,
      "隙": 5618,
      "際": 5619,
      "障": 5620,
      "隠": 5621,
      "隣": 5622,
      "隨": 5623,
      "隷": 5624,
      "隻": 5625,
      "隼": 5626,
      "难": 5627,
      "雁": 5628,
      "雄": 5629,
      "雅": 5630,
      "集": 5631,
      "雇": 5632,
      "雑": 5633,
      "雖": 5634,
      "雛": 5635,
      "雞": 5636,
      "離": 5637,
      "難": 5638,
      "雨": 5639,
      "雪": 5640,
      "雰": 5641,
      "雲": 5642,
      "零": 5643,
      "雷": 5644,
      "電": 5645,
      "需": 5646,
      "震": 5647,
      "霊": 5648,
      "霞": 5649,
      "霧": 5650,
      "露": 5651,
      "霸": 5652,
      "青": 5653,
      "靖": 5654,
      "静": 5655,
      "靚": 5656,
      "靜": 5657,
      "非": 5658,
      "靠": 5659,
      "面": 5660,
      "革": 5661,
      "靴": 5662,
      "鞄": 5663,
      "鞋": 5664,
      "鞘": 5665,
      "鞠": 5666,
      "韓": 5667,
      "音": 5668,
      "韻": 5669,
      "響": 5670,
      "頁": 5671,
      "頂": 5672,
      "頃": 5673,
      "項": 5674,
      "順": 5675,
      "須": 5676,
      "預": 5677,
      "頑": 5678,
      "頓": 5679,
      "領": 5680,
      "頬": 5681,
      "頭": 5682,
      "頸": 5683,
      "頻": 5684,
      "頼": 5685,
      "題": 5686,
      "額": 5687,
      "顎": 5688,
      "顔": 5689,
      "顕": 5690,
      "願": 5691,
      "顛": 5692,
      "類": 5693,
      "顧": 5694,
      "顫": 5695,
      "顶": 5696,
      "项": 5697,
      "顺": 5698,
      "顾": 5699,
      "领": 5700,
      "题": 5701,
      "颜": 5702,
      "颠": 5703,
      "颤": 5704,
      "風": 5705,
      "颯": 5706,
      "风": 5707,
      "飘": 5708,
      "飛": 5709,
      "食": 5710,
      "飠": 5711,
      "飯": 5712,
      "飲": 5713,
      "飴": 5714,
      "飼": 5715,
      "飽": 5716,
      "飾": 5717,
      "餃": 5718,
      "餅": 5719,
      "養": 5720,
      "餌": 5721,
      "餐": 5722,
      "餡": 5723,
      "館": 5724,
      "餵": 5725,
      "饅": 5726,
      "饣": 5727,
      "饭": 5728,
      "饮": 5729,
      "饱": 5730,
      "饿": 5731,
      "馆": 5732,
      "首": 5733,
      "香": 5734,
      "馥": 5735,
      "馬": 5736,
      "馳": 5737,
      "馴": 5738,
      "駄": 5739,
      "駅": 5740,
      "駆": 5741,
      "駐": 5742,
      "駒": 5743,
      "駕": 5744,
      "駿": 5745,
      "騎": 5746,
      "騒": 5747,
      "験": 5748,
      "騙": 5749,
      "騰": 5750,
      "驍": 5751,
      "驚": 5752,
      "马": 5753,
      "骂": 5754,
      "验": 5755,
      "骨": 5756,
      "髄": 5757,
      "體": 5758,
      "高": 5759,
      "髙": 5760,
      "髪": 5761,
      "鬚": 5762,
      "鬥": 5763,
      "鬱": 5764,
      "鬼": 5765,
      "魂": 5766,
      "魅": 5767,
      "魍": 5768,
      "魎": 5769,
      "魏": 5770,
      "魑": 5771,
      "魔": 5772,
      "魚": 5773,
      "魯": 5774,
      "鮮": 5775,
      "鯖": 5776,
      "鯛": 5777,
      "鯨": 5778,
      "鲜": 5779,
      "鳥": 5780,
      "鳩": 5781,
      "鳯": 5782,
      "鳳": 5783,
      "鳴": 5784,
      "鴛": 5785,
      "鴦": 5786,
      "鴻": 5787,
      "鵜": 5788,
      "鶏": 5789,
      "鶴": 5790,
      "鷹": 5791,
      "鸟": 5792,
      "鸡": 5793,
      "鹽": 5794,
      "鹿": 5795,
      "麗": 5796,
      "麦": 5797,
      "麵": 5798,
      "麺": 5799,
      "麻": 5800,
      "麼": 5801,
      "麽": 5802,
      "黃": 5803,
      "黄": 5804,
      "黎": 5805,
      "黑": 5806,
      "黒": 5807,
      "黙": 5808,
      "黨": 5809,
      "黴": 5810,
      "鼓": 5811,
      "鼠": 5812,
      "鼻": 5813,
      "鼾": 5814,
      "齊": 5815,
      "齢": 5816,
      "龍": 5817,
      "龙": 5818,
      "ꍘ": 5819,
      "ꎍ": 5820,
      "ꏱ": 5821,
      "꒪": 5822,
      "꒳": 5823,
      "ꓘ": 5824,
      "ꗞ": 5825,
      "꘠": 5826,
      "ꜣ": 5827,
      "ꜥ": 5828,
      "ꜰ": 5829,
      "ꜱ": 5830,
      "ꞈ": 5831,
      "ꞔ": 5832,
      "ꞗ": 5833,
      "ꟻ": 5834,
      "ꠥ": 5835,
      "ꭱ": 5836,
      "ꭲ": 5837,
      "ꭹ": 5838,
      "ꭺ": 5839,
      "ꭿ": 5840,
      "ꮄ": 5841,
      "ꮇ": 5842,
      "ꮋ": 5843,
      "ꮍ": 5844,
      "ꮎ": 5845,
      "ꮏ": 5846,
      "ꮖ": 5847,
      "ꮛ": 5848,
      "ꮢ": 5849,
      "ꮧ": 5850,
      "ꮭ": 5851,
      "가": 5852,
      "각": 5853,
      "간": 5854,
      "갈": 5855,
      "감": 5856,
      "갑": 5857,
      "값": 5858,
      "갓": 5859,
      "갔": 5860,
      "강": 5861,
      "갖": 5862,
      "같": 5863,
      "갛": 5864,
      "개": 5865,
      "거": 5866,
      "걱": 5867,
      "건": 5868,
      "걸": 5869,
      "검": 5870,
      "겁": 5871,
      "것": 5872,
      "겋": 5873,
      "게": 5874,
      "겟": 5875,
      "겠": 5876,
      "겨": 5877,
      "격": 5878,
      "견": 5879,
      "결": 5880,
      "겼": 5881,
      "경": 5882,
      "곁": 5883,
      "계": 5884,
      "고": 5885,
      "곡": 5886,
      "곤": 5887,
      "곳": 5888,
      "공": 5889,
      "과": 5890,
      "관": 5891,
      "광": 5892,
      "괴": 5893,
      "교": 5894,
      "구": 5895,
      "국": 5896,
      "군": 5897,
      "굴": 5898,
      "굿": 5899,
      "권": 5900,
      "귀": 5901,
      "규": 5902,
      "그": 5903,
      "극": 5904,
      "근": 5905,
      "글": 5906,
      "금": 5907,
      "급": 5908,
      "기": 5909,
      "긴": 5910,
      "길": 5911,
      "김": 5912,
      "깊": 5913,
      "까": 5914,
      "깔": 5915,
      "깜": 5916,
      "깡": 5917,
      "깨": 5918,
      "꺼": 5919,
      "껄": 5920,
      "껌": 5921,
      "께": 5922,
      "꼬": 5923,
      "꼭": 5924,
      "꽤": 5925,
      "꾸": 5926,
      "꾹": 5927,
      "꾼": 5928,
      "꿀": 5929,
      "끄": 5930,
      "끝": 5931,
      "끼": 5932,
      "낀": 5933,
      "낌": 5934,
      "나": 5935,
      "낙": 5936,
      "난": 5937,
      "날": 5938,
      "남": 5939,
      "났": 5940,
      "낮": 5941,
      "내": 5942,
      "낸": 5943,
      "낼": 5944,
      "냅": 5945,
      "냈": 5946,
      "냉": 5947,
      "냐": 5948,
      "냥": 5949,
      "너": 5950,
      "넉": 5951,
      "넌": 5952,
      "넘": 5953,
      "넣": 5954,
      "네": 5955,
      "넹": 5956,
      "녀": 5957,
      "년": 5958,
      "녕": 5959,
      "노": 5960,
      "녹": 5961,
      "논": 5962,
      "놀": 5963,
      "놈": 5964,
      "농": 5965,
      "높": 5966,
      "놓": 5967,
      "뇨": 5968,
      "누": 5969,
      "눈": 5970,
      "느": 5971,
      "는": 5972,
      "늘": 5973,
      "능": 5974,
      "니": 5975,
      "닌": 5976,
      "닐": 5977,
      "님": 5978,
      "닝": 5979,
      "다": 5980,
      "단": 5981,
      "닫": 5982,
      "달": 5983,
      "닭": 5984,
      "닮": 5985,
      "담": 5986,
      "답": 5987,
      "당": 5988,
      "닿": 5989,
      "대": 5990,
      "댓": 5991,
      "더": 5992,
      "덕": 5993,
      "던": 5994,
      "덜": 5995,
      "덤": 5996,
      "데": 5997,
      "덴": 5998,
      "뎀": 5999,
      "도": 6000,
      "독": 6001,
      "돈": 6002,
      "동": 6003,
      "돼": 6004,
      "되": 6005,
      "된": 6006,
      "될": 6007,
      "됩": 6008,
      "두": 6009,
      "둡": 6010,
      "뒤": 6011,
      "뒷": 6012,
      "뒹": 6013,
      "드": 6014,
      "득": 6015,
      "든": 6016,
      "듣": 6017,
      "들": 6018,
      "듯": 6019,
      "등": 6020,
      "디": 6021,
      "딘": 6022,
      "딧": 6023,
      "따": 6024,
      "딱": 6025,
      "딸": 6026,
      "땀": 6027,
      "땅": 6028,
      "때": 6029,
      "땐": 6030,
      "떠": 6031,
      "떡": 6032,
      "떤": 6033,
      "떨": 6034,
      "떻": 6035,
      "또": 6036,
      "똑": 6037,
      "뚜": 6038,
      "뛰": 6039,
      "뜨": 6040,
      "뜻": 6041,
      "띤": 6042,
      "라": 6043,
      "락": 6044,
      "란": 6045,
      "람": 6046,
      "랑": 6047,
      "랗": 6048,
      "래": 6049,
      "랙": 6050,
      "랜": 6051,
      "램": 6052,
      "랭": 6053,
      "량": 6054,
      "러": 6055,
      "런": 6056,
      "럴": 6057,
      "럼": 6058,
      "럽": 6059,
      "렁": 6060,
      "렇": 6061,
      "레": 6062,
      "렉": 6063,
      "렌": 6064,
      "렙": 6065,
      "려": 6066,
      "력": 6067,
      "련": 6068,
      "렬": 6069,
      "렵": 6070,
      "렸": 6071,
      "령": 6072,
      "례": 6073,
      "로": 6074,
      "록": 6075,
      "론": 6076,
      "롤": 6077,
      "롬": 6078,
      "롱": 6079,
      "뢰": 6080,
      "료": 6081,
      "루": 6082,
      "룩": 6083,
      "룸": 6084,
      "류": 6085,
      "륜": 6086,
      "르": 6087,
      "른": 6088,
      "를": 6089,
      "름": 6090,
      "릅": 6091,
      "릇": 6092,
      "리": 6093,
      "릭": 6094,
      "린": 6095,
      "릴": 6096,
      "림": 6097,
      "립": 6098,
      "링": 6099,
      "마": 6100,
      "막": 6101,
      "만": 6102,
      "많": 6103,
      "맏": 6104,
      "말": 6105,
      "맑": 6106,
      "맙": 6107,
      "맛": 6108,
      "망": 6109,
      "맞": 6110,
      "맣": 6111,
      "매": 6112,
      "맥": 6113,
      "맨": 6114,
      "맹": 6115,
      "머": 6116,
      "먹": 6117,
      "먼": 6118,
      "메": 6119,
      "멘": 6120,
      "며": 6121,
      "면": 6122,
      "명": 6123,
      "몇": 6124,
      "모": 6125,
      "목": 6126,
      "몬": 6127,
      "몰": 6128,
      "몸": 6129,
      "못": 6130,
      "몽": 6131,
      "묘": 6132,
      "무": 6133,
      "묶": 6134,
      "문": 6135,
      "물": 6136,
      "뭇": 6137,
      "뭐": 6138,
      "뭔": 6139,
      "뭘": 6140,
      "뮤": 6141,
      "뮬": 6142,
      "므": 6143,
      "미": 6144,
      "민": 6145,
      "믿": 6146,
      "밀": 6147,
      "밍": 6148,
      "및": 6149,
      "바": 6150,
      "박": 6151,
      "반": 6152,
      "받": 6153,
      "발": 6154,
      "밤": 6155,
      "밥": 6156,
      "방": 6157,
      "배": 6158,
      "백": 6159,
      "밴": 6160,
      "버": 6161,
      "벅": 6162,
      "번": 6163,
      "벌": 6164,
      "범": 6165,
      "법": 6166,
      "벗": 6167,
      "베": 6168,
      "벤": 6169,
      "벨": 6170,
      "벽": 6171,
      "변": 6172,
      "별": 6173,
      "병": 6174,
      "볕": 6175,
      "보": 6176,
      "복": 6177,
      "본": 6178,
      "볼": 6179,
      "봄": 6180,
      "봅": 6181,
      "봉": 6182,
      "봐": 6183,
      "부": 6184,
      "북": 6185,
      "분": 6186,
      "불": 6187,
      "붉": 6188,
      "붙": 6189,
      "뷰": 6190,
      "브": 6191,
      "블": 6192,
      "비": 6193,
      "빈": 6194,
      "빕": 6195,
      "빛": 6196,
      "빠": 6197,
      "빤": 6198,
      "빨": 6199,
      "빵": 6200,
      "빼": 6201,
      "빽": 6202,
      "뻐": 6203,
      "뻘": 6204,
      "뼈": 6205,
      "뽀": 6206,
      "뽂": 6207,
      "뽈": 6208,
      "뽕": 6209,
      "뿐": 6210,
      "뿜": 6211,
      "쁜": 6212,
      "삐": 6213,
      "사": 6214,
      "산": 6215,
      "살": 6216,
      "삼": 6217,
      "상": 6218,
      "새": 6219,
      "색": 6220,
      "생": 6221,
      "샤": 6222,
      "샷": 6223,
      "서": 6224,
      "석": 6225,
      "선": 6226,
      "설": 6227,
      "섯": 6228,
      "성": 6229,
      "세": 6230,
      "섹": 6231,
      "센": 6232,
      "셈": 6233,
      "셉": 6234,
      "셔": 6235,
      "션": 6236,
      "셨": 6237,
      "소": 6238,
      "속": 6239,
      "손": 6240,
      "솔": 6241,
      "송": 6242,
      "쇄": 6243,
      "쇠": 6244,
      "쇼": 6245,
      "수": 6246,
      "숙": 6247,
      "순": 6248,
      "술": 6249,
      "숨": 6250,
      "숫": 6251,
      "쉬": 6252,
      "쉴": 6253,
      "쉽": 6254,
      "슈": 6255,
      "스": 6256,
      "슨": 6257,
      "슬": 6258,
      "슴": 6259,
      "습": 6260,
      "슷": 6261,
      "승": 6262,
      "시": 6263,
      "식": 6264,
      "신": 6265,
      "실": 6266,
      "싫": 6267,
      "심": 6268,
      "십": 6269,
      "싴": 6270,
      "싶": 6271,
      "싼": 6272,
      "쌀": 6273,
      "쌩": 6274,
      "써": 6275,
      "썹": 6276,
      "쏘": 6277,
      "쒀": 6278,
      "쓔": 6279,
      "쓩": 6280,
      "쓰": 6281,
      "씀": 6282,
      "씨": 6283,
      "씩": 6284,
      "씬": 6285,
      "씹": 6286,
      "씻": 6287,
      "아": 6288,
      "악": 6289,
      "안": 6290,
      "않": 6291,
      "알": 6292,
      "암": 6293,
      "압": 6294,
      "앗": 6295,
      "았": 6296,
      "앙": 6297,
      "앞": 6298,
      "애": 6299,
      "액": 6300,
      "앰": 6301,
      "야": 6302,
      "약": 6303,
      "얀": 6304,
      "양": 6305,
      "얗": 6306,
      "얘": 6307,
      "어": 6308,
      "억": 6309,
      "언": 6310,
      "얼": 6311,
      "엄": 6312,
      "업": 6313,
      "없": 6314,
      "엇": 6315,
      "었": 6316,
      "에": 6317,
      "엔": 6318,
      "엘": 6319,
      "엠": 6320,
      "여": 6321,
      "역": 6322,
      "연": 6323,
      "열": 6324,
      "염": 6325,
      "엿": 6326,
      "였": 6327,
      "영": 6328,
      "옆": 6329,
      "예": 6330,
      "오": 6331,
      "옥": 6332,
      "온": 6333,
      "올": 6334,
      "옷": 6335,
      "옹": 6336,
      "와": 6337,
      "완": 6338,
      "왓": 6339,
      "왔": 6340,
      "왕": 6341,
      "왜": 6342,
      "외": 6343,
      "요": 6344,
      "용": 6345,
      "우": 6346,
      "운": 6347,
      "울": 6348,
      "움": 6349,
      "웃": 6350,
      "워": 6351,
      "원": 6352,
      "월": 6353,
      "웟": 6354,
      "웨": 6355,
      "웬": 6356,
      "웹": 6357,
      "웽": 6358,
      "위": 6359,
      "윈": 6360,
      "윗": 6361,
      "유": 6362,
      "육": 6363,
      "윤": 6364,
      "율": 6365,
      "으": 6366,
      "은": 6367,
      "을": 6368,
      "음": 6369,
      "응": 6370,
      "의": 6371,
      "이": 6372,
      "익": 6373,
      "인": 6374,
      "일": 6375,
      "읽": 6376,
      "잃": 6377,
      "임": 6378,
      "입": 6379,
      "있": 6380,
      "잉": 6381,
      "잊": 6382,
      "자": 6383,
      "작": 6384,
      "잔": 6385,
      "잖": 6386,
      "잘": 6387,
      "잠": 6388,
      "잡": 6389,
      "장": 6390,
      "재": 6391,
      "잽": 6392,
      "쟁": 6393,
      "쟈": 6394,
      "저": 6395,
      "적": 6396,
      "전": 6397,
      "절": 6398,
      "젊": 6399,
      "점": 6400,
      "정": 6401,
      "제": 6402,
      "젠": 6403,
      "져": 6404,
      "졌": 6405,
      "졍": 6406,
      "조": 6407,
      "족": 6408,
      "존": 6409,
      "졸": 6410,
      "좀": 6411,
      "종": 6412,
      "좋": 6413,
      "좌": 6414,
      "죠": 6415,
      "주": 6416,
      "죽": 6417,
      "준": 6418,
      "줄": 6419,
      "중": 6420,
      "줘": 6421,
      "줬": 6422,
      "쥬": 6423,
      "즈": 6424,
      "즉": 6425,
      "즌": 6426,
      "즘": 6427,
      "증": 6428,
      "지": 6429,
      "직": 6430,
      "진": 6431,
      "질": 6432,
      "짐": 6433,
      "집": 6434,
      "짓": 6435,
      "징": 6436,
      "짙": 6437,
      "짜": 6438,
      "짝": 6439,
      "짠": 6440,
      "짧": 6441,
      "짱": 6442,
      "쨋": 6443,
      "쩍": 6444,
      "쩔": 6445,
      "쪘": 6446,
      "쪽": 6447,
      "쭉": 6448,
      "쯔": 6449,
      "쯤": 6450,
      "찌": 6451,
      "찍": 6452,
      "차": 6453,
      "착": 6454,
      "찬": 6455,
      "찰": 6456,
      "참": 6457,
      "창": 6458,
      "찾": 6459,
      "채": 6460,
      "책": 6461,
      "챙": 6462,
      "처": 6463,
      "척": 6464,
      "천": 6465,
      "철": 6466,
      "첨": 6467,
      "첫": 6468,
      "청": 6469,
      "체": 6470,
      "쳐": 6471,
      "초": 6472,
      "촌": 6473,
      "총": 6474,
      "최": 6475,
      "추": 6476,
      "축": 6477,
      "춘": 6478,
      "출": 6479,
      "충": 6480,
      "취": 6481,
      "췰": 6482,
      "츄": 6483,
      "측": 6484,
      "치": 6485,
      "칙": 6486,
      "친": 6487,
      "칠": 6488,
      "침": 6489,
      "칯": 6490,
      "카": 6491,
      "칸": 6492,
      "칼": 6493,
      "캠": 6494,
      "캣": 6495,
      "커": 6496,
      "컨": 6497,
      "컷": 6498,
      "케": 6499,
      "켓": 6500,
      "코": 6501,
      "콜": 6502,
      "콩": 6503,
      "쿠": 6504,
      "퀴": 6505,
      "큐": 6506,
      "크": 6507,
      "큰": 6508,
      "클": 6509,
      "큼": 6510,
      "키": 6511,
      "킨": 6512,
      "킬": 6513,
      "타": 6514,
      "탁": 6515,
      "탄": 6516,
      "탈": 6517,
      "탑": 6518,
      "탕": 6519,
      "태": 6520,
      "택": 6521,
      "탱": 6522,
      "터": 6523,
      "테": 6524,
      "텔": 6525,
      "토": 6526,
      "톡": 6527,
      "톤": 6528,
      "통": 6529,
      "투": 6530,
      "툰": 6531,
      "퉁": 6532,
      "튜": 6533,
      "트": 6534,
      "특": 6535,
      "튼": 6536,
      "티": 6537,
      "틴": 6538,
      "틸": 6539,
      "팀": 6540,
      "팁": 6541,
      "팅": 6542,
      "팊": 6543,
      "파": 6544,
      "판": 6545,
      "팔": 6546,
      "팝": 6547,
      "팡": 6548,
      "패": 6549,
      "팬": 6550,
      "퍼": 6551,
      "페": 6552,
      "펠": 6553,
      "편": 6554,
      "평": 6555,
      "폐": 6556,
      "포": 6557,
      "폰": 6558,
      "폴": 6559,
      "표": 6560,
      "푸": 6561,
      "풀": 6562,
      "품": 6563,
      "프": 6564,
      "플": 6565,
      "피": 6566,
      "핀": 6567,
      "필": 6568,
      "핍": 6569,
      "핑": 6570,
      "하": 6571,
      "학": 6572,
      "한": 6573,
      "할": 6574,
      "함": 6575,
      "합": 6576,
      "항": 6577,
      "해": 6578,
      "핸": 6579,
      "햇": 6580,
      "했": 6581,
      "행": 6582,
      "향": 6583,
      "허": 6584,
      "헐": 6585,
      "험": 6586,
      "헛": 6587,
      "헝": 6588,
      "헤": 6589,
      "헿": 6590,
      "혀": 6591,
      "현": 6592,
      "혈": 6593,
      "협": 6594,
      "형": 6595,
      "혜": 6596,
      "호": 6597,
      "혼": 6598,
      "홍": 6599,
      "화": 6600,
      "확": 6601,
      "환": 6602,
      "활": 6603,
      "황": 6604,
      "회": 6605,
      "횐": 6606,
      "효": 6607,
      "후": 6608,
      "훈": 6609,
      "훨": 6610,
      "흉": 6611,
      "흐": 6612,
      "흑": 6613,
      "흔": 6614,
      "흘": 6615,
      "흡": 6616,
      "흥": 6617,
      "희": 6618,
      "히": 6619,
      "힘": 6620,
      "": 6621,
      "": 6622,
      "": 6623,
      "": 6624,
      "": 6625,
      "": 6626,
      "": 6627,
      "": 6628,
      "": 6629,
      "": 6630,
      "": 6631,
      "": 6632,
      "": 6633,
      "": 6634,
      "": 6635,
      "": 6636,
      "": 6637,
      "": 6638,
      "": 6639,
      "": 6640,
      "": 6641,
      "": 6642,
      "": 6643,
      "": 6644,
      "": 6645,
      "": 6646,
      "": 6647,
      "": 6648,
      "": 6649,
      "": 6650,
      "": 6651,
      "": 6652,
      "ﬀ": 6653,
      "ﬁ": 6654,
      "ﬂ": 6655,
      "ﬅ": 6656,
      "ﮌ": 6657,
      "﴾": 6658,
      "﴿": 6659,
      "ﷲ": 6660,
      "ﷺ": 6661,
      "ﷻ": 6662,
      "﷼": 6663,
      "︎": 6664,
      "️": 6665,
      "︵": 6666,
      "︶": 6667,
      "︹": 6668,
      "︺": 6669,
      "︻": 6670,
      "︿": 6671,
      "﹃": 6672,
      "﹏": 6673,
      "ﺤ": 6674,
      "ﻌ": 6675,
      "ﻚ": 6676,
      "ﻠ": 6677,
      "ﻣ": 6678,
      "﻿": 6679,
      "！": 6680,
      "＂": 6681,
      "＃": 6682,
      "＄": 6683,
      "％": 6684,
      "＆": 6685,
      "＇": 6686,
      "（": 6687,
      "）": 6688,
      "＊": 6689,
      "＋": 6690,
      "，": 6691,
      "－": 6692,
      "．": 6693,
      "／": 6694,
      "０": 6695,
      "１": 6696,
      "２": 6697,
      "３": 6698,
      "４": 6699,
      "５": 6700,
      "６": 6701,
      "７": 6702,
      "８": 6703,
      "９": 6704,
      "：": 6705,
      "；": 6706,
      "＜": 6707,
      "＝": 6708,
      "＞": 6709,
      "？": 6710,
      "＠": 6711,
      "［": 6712,
      "＼": 6713,
      "］": 6714,
      "＾": 6715,
      "＿": 6716,
      "｀": 6717,
      "ａ": 6718,
      "ｂ": 6719,
      "ｃ": 6720,
      "ｄ": 6721,
      "ｅ": 6722,
      "ｆ": 6723,
      "ｇ": 6724,
      "ｈ": 6725,
      "ｉ": 6726,
      "ｊ": 6727,
      "ｋ": 6728,
      "ｌ": 6729,
      "ｍ": 6730,
      "ｎ": 6731,
      "ｏ": 6732,
      "ｐ": 6733,
      "ｑ": 6734,
      "ｒ": 6735,
      "ｓ": 6736,
      "ｔ": 6737,
      "ｕ": 6738,
      "ｖ": 6739,
      "ｗ": 6740,
      "ｘ": 6741,
      "ｙ": 6742,
      "ｚ": 6743,
      "｛": 6744,
      "｜": 6745,
      "｝": 6746,
      "～": 6747,
      "｡": 6748,
      "｢": 6749,
      "｣": 6750,
      "､": 6751,
      "･": 6752,
      "ｧ": 6753,
      "ｨ": 6754,
      "ｪ": 6755,
      "ｫ": 6756,
      "ｬ": 6757,
      "ｮ": 6758,
      "ｯ": 6759,
      "ｰ": 6760,
      "ｱ": 6761,
      "ｲ": 6762,
      "ｴ": 6763,
      "ｵ": 6764,
      "ｶ": 6765,
      "ｷ": 6766,
      "ｸ": 6767,
      "ｹ": 6768,
      "ｺ": 6769,
      "ｼ": 6770,
      "ｽ": 6771,
      "ｾ": 6772,
      "ﾀ": 6773,
      "ﾁ": 6774,
      "ﾃ": 6775,
      "ﾄ": 6776,
      "ﾅ": 6777,
      "ﾆ": 6778,
      "ﾈ": 6779,
      "ﾉ": 6780,
      "ﾊ": 6781,
      "ﾋ": 6782,
      "ﾌ": 6783,
      "ﾍ": 6784,
      "ﾎ": 6785,
      "ﾏ": 6786,
      "ﾐ": 6787,
      "ﾑ": 6788,
      "ﾒ": 6789,
      "ﾓ": 6790,
      "ﾔ": 6791,
      "ﾗ": 6792,
      "ﾘ": 6793,
      "ﾙ": 6794,
      "ﾚ": 6795,
      "ﾛ": 6796,
      "ﾜ": 6797,
      "ﾝ": 6798,
      "ﾞ": 6799,
      "ﾟ": 6800,
      "￢": 6801,
      "￣": 6802,
      "￥": 6803,
      "￦": 6804,
      "￩": 6805,
      "￫": 6806,
      "￼": 6807,
      "�": 6808,
      "𐌰": 6809,
      "𐌱": 6810,
      "𐌲": 6811,
      "𐌳": 6812,
      "𐌴": 6813,
      "𐌶": 6814,
      "𐌷": 6815,
      "𐌸": 6816,
      "𐌹": 6817,
      "𐌺": 6818,
      "𐌻": 6819,
      "𐌼": 6820,
      "𐌽": 6821,
      "𐌾": 6822,
      "𐌿": 6823,
      "𐍀": 6824,
      "𐍂": 6825,
      "𐍃": 6826,
      "𐍄": 6827,
      "𐍆": 6828,
      "𐍈": 6829,
      "𐍉": 6830,
      "𐐫": 6831,
      "𓀁": 6832,
      "𓁶": 6833,
      "𓂋": 6834,
      "𓂝": 6835,
      "𓂻": 6836,
      "𓄚": 6837,
      "𓇠": 6838,
      "𓈖": 6839,
      "𓉐": 6840,
      "𓉻": 6841,
      "𓋹": 6842,
      "𓏌": 6843,
      "𓏏": 6844,
      "𓏛": 6845,
      "𓏞": 6846,
      "𓏤": 6847,
      "𝐀": 6848,
      "𝐂": 6849,
      "𝐅": 6850,
      "𝐆": 6851,
      "𝐈": 6852,
      "𝐋": 6853,
      "𝐌": 6854,
      "𝐍": 6855,
      "𝐑": 6856,
      "𝐔": 6857,
      "𝐵": 6858,
      "𝑑": 6859,
      "𝑒": 6860,
      "𝑖": 6861,
      "𝑦": 6862,
      "𝒆": 6863,
      "𝒪": 6864,
      "𝒶": 6865,
      "𝒷": 6866,
      "𝒹": 6867,
      "𝒾": 6868,
      "𝓁": 6869,
      "𝓃": 6870,
      "𝓅": 6871,
      "𝓇": 6872,
      "𝓈": 6873,
      "𝓉": 6874,
      "𝓌": 6875,
      "𝓐": 6876,
      "𝓑": 6877,
      "𝓒": 6878,
      "𝓓": 6879,
      "𝓔": 6880,
      "𝓖": 6881,
      "𝓗": 6882,
      "𝓘": 6883,
      "𝓛": 6884,
      "𝓜": 6885,
      "𝓝": 6886,
      "𝓞": 6887,
      "𝓟": 6888,
      "𝓡": 6889,
      "𝓢": 6890,
      "𝓣": 6891,
      "𝓥": 6892,
      "𝓨": 6893,
      "𝓪": 6894,
      "𝓭": 6895,
      "𝓮": 6896,
      "𝓱": 6897,
      "𝓲": 6898,
      "𝓶": 6899,
      "𝓸": 6900,
      "𝓹": 6901,
      "𝓻": 6902,
      "𝓼": 6903,
      "𝓽": 6904,
      "𝔅": 6905,
      "𝔉": 6906,
      "𝔊": 6907,
      "𝔓": 6908,
      "𝔚": 6909,
      "𝔞": 6910,
      "𝔟": 6911,
      "𝔡": 6912,
      "𝔢": 6913,
      "𝔣": 6914,
      "𝔦": 6915,
      "𝔩": 6916,
      "𝔪": 6917,
      "𝔫": 6918,
      "𝔬": 6919,
      "𝔯": 6920,
      "𝔰": 6921,
      "𝔱": 6922,
      "𝔲": 6923,
      "𝔹": 6924,
      "𝔽": 6925,
      "𝕆": 6926,
      "𝕊": 6927,
      "𝕎": 6928,
      "𝕒": 6929,
      "𝕔": 6930,
      "𝕕": 6931,
      "𝕖": 6932,
      "𝕚": 6933,
      "𝕣": 6934,
      "𝕤": 6935,
      "𝕥": 6936,
      "𝕧": 6937,
      "𝖇": 6938,
      "𝖌": 6939,
      "𝖎": 6940,
      "𝖑": 6941,
      "𝖓": 6942,
      "𝖔": 6943,
      "𝖘": 6944,
      "𝖠": 6945,
      "𝖡": 6946,
      "𝖢": 6947,
      "𝖣": 6948,
      "𝖤": 6949,
      "𝖥": 6950,
      "𝖦": 6951,
      "𝖧": 6952,
      "𝖨": 6953,
      "𝖫": 6954,
      "𝖬": 6955,
      "𝖭": 6956,
      "𝖮": 6957,
      "𝖯": 6958,
      "𝖱": 6959,
      "𝖲": 6960,
      "𝖳": 6961,
      "𝖴": 6962,
      "𝖵": 6963,
      "𝖶": 6964,
      "𝖷": 6965,
      "𝖸": 6966,
      "𝖾": 6967,
      "𝗈": 6968,
      "𝗌": 6969,
      "𝘊": 6970,
      "𝘏": 6971,
      "𝘐": 6972,
      "𝘛": 6973,
      "𝘢": 6974,
      "𝘦": 6975,
      "𝘪": 6976,
      "𝘭": 6977,
      "𝘯": 6978,
      "𝘰": 6979,
      "𝘵": 6980,
      "𝘶": 6981,
      "𝘺": 6982,
      "𝚎": 6983,
      "𝜋": 6984,
      "🀄": 6985,
      "🃏": 6986,
      "🅐": 6987,
      "🅔": 6988,
      "🅕": 6989,
      "🅖": 6990,
      "🅗": 6991,
      "🅘": 6992,
      "🅝": 6993,
      "🅞": 6994,
      "🅟": 6995,
      "🅡": 6996,
      "🅣": 6997,
      "🅰": 6998,
      "🅱": 6999,
      "🅲": 7000,
      "🅷": 7001,
      "🅸": 7002,
      "🅾": 7003,
      "🅿": 7004,
      "🆃": 7005,
      "🆎": 7006,
      "🆑": 7007,
      "🆒": 7008,
      "🆓": 7009,
      "🆔": 7010,
      "🆕": 7011,
      "🆖": 7012,
      "🆗": 7013,
      "🆘": 7014,
      "🆙": 7015,
      "🇦": 7016,
      "🇧": 7017,
      "🇨": 7018,
      "🇩": 7019,
      "🇪": 7020,
      "🇫": 7021,
      "🇬": 7022,
      "🇭": 7023,
      "🇮": 7024,
      "🇯": 7025,
      "🇰": 7026,
      "🇱": 7027,
      "🇲": 7028,
      "🇳": 7029,
      "🇴": 7030,
      "🇵": 7031,
      "🇶": 7032,
      "🇷": 7033,
      "🇸": 7034,
      "🇹": 7035,
      "🇺": 7036,
      "🇻": 7037,
      "🇼": 7038,
      "🇽": 7039,
      "🇾": 7040,
      "🇿": 7041,
      "🈁": 7042,
      "🈚": 7043,
      "🈲": 7044,
      "🈴": 7045,
      "🈶": 7046,
      "🈷": 7047,
      "🈸": 7048,
      "🈺": 7049,
      "🉐": 7050,
      "🌀": 7051,
      "🌄": 7052,
      "🌅": 7053,
      "🌆": 7054,
      "🌇": 7055,
      "🌈": 7056,
      "🌊": 7057,
      "🌋": 7058,
      "🌌": 7059,
      "🌍": 7060,
      "🌎": 7061,
      "🌏": 7062,
      "🌐": 7063,
      "🌒": 7064,
      "🌕": 7065,
      "🌖": 7066,
      "🌘": 7067,
      "🌙": 7068,
      "🌚": 7069,
      "🌛": 7070,
      "🌜": 7071,
      "🌝": 7072,
      "🌞": 7073,
      "🌟": 7074,
      "🌠": 7075,
      "🌡": 7076,
      "🌤": 7077,
      "🌥": 7078,
      "🌧": 7079,
      "🌨": 7080,
      "🌩": 7081,
      "🌪": 7082,
      "🌫": 7083,
      "🌬": 7084,
      "🌭": 7085,
      "🌮": 7086,
      "🌯": 7087,
      "🌰": 7088,
      "🌱": 7089,
      "🌲": 7090,
      "🌳": 7091,
      "🌴": 7092,
      "🌵": 7093,
      "🌶": 7094,
      "🌷": 7095,
      "🌸": 7096,
      "🌹": 7097,
      "🌺": 7098,
      "🌻": 7099,
      "🌼": 7100,
      "🌽": 7101,
      "🌾": 7102,
      "🌿": 7103,
      "🍀": 7104,
      "🍁": 7105,
      "🍂": 7106,
      "🍃": 7107,
      "🍄": 7108,
      "🍅": 7109,
      "🍆": 7110,
      "🍇": 7111,
      "🍈": 7112,
      "🍉": 7113,
      "🍊": 7114,
      "🍋": 7115,
      "🍌": 7116,
      "🍍": 7117,
      "🍎": 7118,
      "🍏": 7119,
      "🍐": 7120,
      "🍑": 7121,
      "🍒": 7122,
      "🍓": 7123,
      "🍔": 7124,
      "🍕": 7125,
      "🍖": 7126,
      "🍗": 7127,
      "🍘": 7128,
      "🍙": 7129,
      "🍚": 7130,
      "🍛": 7131,
      "🍜": 7132,
      "🍝": 7133,
      "🍞": 7134,
      "🍟": 7135,
      "🍠": 7136,
      "🍡": 7137,
      "🍣": 7138,
      "🍤": 7139,
      "🍦": 7140,
      "🍧": 7141,
      "🍨": 7142,
      "🍩": 7143,
      "🍪": 7144,
      "🍫": 7145,
      "🍬": 7146,
      "🍭": 7147,
      "🍮": 7148,
      "🍯": 7149,
      "🍰": 7150,
      "🍱": 7151,
      "🍲": 7152,
      "🍳": 7153,
      "🍴": 7154,
      "🍵": 7155,
      "🍶": 7156,
      "🍷": 7157,
      "🍸": 7158,
      "🍹": 7159,
      "🍺": 7160,
      "🍻": 7161,
      "🍼": 7162,
      "🍽": 7163,
      "🍾": 7164,
      "🍿": 7165,
      "🎀": 7166,
      "🎁": 7167,
      "🎂": 7168,
      "🎃": 7169,
      "🎄": 7170,
      "🎅": 7171,
      "🎆": 7172,
      "🎇": 7173,
      "🎈": 7174,
      "🎉": 7175,
      "🎊": 7176,
      "🎋": 7177,
      "🎍": 7178,
      "🎎": 7179,
      "🎏": 7180,
      "🎑": 7181,
      "🎒": 7182,
      "🎓": 7183,
      "🎖": 7184,
      "🎙": 7185,
      "🎚": 7186,
      "🎛": 7187,
      "🎜": 7188,
      "🎝": 7189,
      "🎞": 7190,
      "🎟": 7191,
      "🎠": 7192,
      "🎡": 7193,
      "🎢": 7194,
      "🎣": 7195,
      "🎤": 7196,
      "🎥": 7197,
      "🎦": 7198,
      "🎧": 7199,
      "🎨": 7200,
      "🎩": 7201,
      "🎪": 7202,
      "🎫": 7203,
      "🎬": 7204,
      "🎭": 7205,
      "🎮": 7206,
      "🎯": 7207,
      "🎰": 7208,
      "🎱": 7209,
      "🎲": 7210,
      "🎳": 7211,
      "🎵": 7212,
      "🎶": 7213,
      "🎷": 7214,
      "🎸": 7215,
      "🎹": 7216,
      "🎺": 7217,
      "🎻": 7218,
      "🎼": 7219,
      "🎾": 7220,
      "🎿": 7221,
      "🏀": 7222,
      "🏁": 7223,
      "🏂": 7224,
      "🏃": 7225,
      "🏄": 7226,
      "🏅": 7227,
      "🏆": 7228,
      "🏇": 7229,
      "🏈": 7230,
      "🏊": 7231,
      "🏋": 7232,
      "🏌": 7233,
      "🏍": 7234,
      "🏎": 7235,
      "🏒": 7236,
      "🏓": 7237,
      "🏔": 7238,
      "🏕": 7239,
      "🏖": 7240,
      "🏘": 7241,
      "🏙": 7242,
      "🏚": 7243,
      "🏜": 7244,
      "🏝": 7245,
      "🏞": 7246,
      "🏟": 7247,
      "🏠": 7248,
      "🏡": 7249,
      "🏢": 7250,
      "🏣": 7251,
      "🏥": 7252,
      "🏦": 7253,
      "🏨": 7254,
      "🏩": 7255,
      "🏪": 7256,
      "🏫": 7257,
      "🏬": 7258,
      "🏭": 7259,
      "🏮": 7260,
      "🏰": 7261,
      "🏳": 7262,
      "🏴": 7263,
      "🏵": 7264,
      "🏹": 7265,
      "🏻": 7266,
      "🏼": 7267,
      "🏽": 7268,
      "🏾": 7269,
      "🏿": 7270,
      "🐀": 7271,
      "🐂": 7272,
      "🐃": 7273,
      "🐄": 7274,
      "🐅": 7275,
      "🐆": 7276,
      "🐇": 7277,
      "🐈": 7278,
      "🐉": 7279,
      "🐊": 7280,
      "🐋": 7281,
      "🐌": 7282,
      "🐍": 7283,
      "🐎": 7284,
      "🐏": 7285,
      "🐐": 7286,
      "🐑": 7287,
      "🐒": 7288,
      "🐓": 7289,
      "🐔": 7290,
      "🐕": 7291,
      "🐖": 7292,
      "🐗": 7293,
      "🐘": 7294,
      "🐙": 7295,
      "🐛": 7296,
      "🐜": 7297,
      "🐝": 7298,
      "🐞": 7299,
      "🐟": 7300,
      "🐠": 7301,
      "🐡": 7302,
      "🐢": 7303,
      "🐣": 7304,
      "🐤": 7305,
      "🐥": 7306,
      "🐦": 7307,
      "🐧": 7308,
      "🐨": 7309,
      "🐩": 7310,
      "🐪": 7311,
      "🐫": 7312,
      "🐬": 7313,
      "🐭": 7314,
      "🐮": 7315,
      "🐯": 7316,
      "🐰": 7317,
      "🐱": 7318,
      "🐲": 7319,
      "🐳": 7320,
      "🐴": 7321,
      "🐵": 7322,
      "🐶": 7323,
      "🐷": 7324,
      "🐸": 7325,
      "🐹": 7326,
      "🐺": 7327,
      "🐻": 7328,
      "🐼": 7329,
      "🐽": 7330,
      "🐾": 7331,
      "🐿": 7332,
      "👀": 7333,
      "👁": 7334,
      "👂": 7335,
      "👃": 7336,
      "👄": 7337,
      "👅": 7338,
      "👆": 7339,
      "👇": 7340,
      "👈": 7341,
      "👉": 7342,
      "👊": 7343,
      "👋": 7344,
      "👌": 7345,
      "👍": 7346,
      "👎": 7347,
      "👏": 7348,
      "👐": 7349,
      "👑": 7350,
      "👒": 7351,
      "👓": 7352,
      "👔": 7353,
      "👕": 7354,
      "👖": 7355,
      "👗": 7356,
      "👘": 7357,
      "👙": 7358,
      "👚": 7359,
      "👛": 7360,
      "👜": 7361,
      "👞": 7362,
      "👟": 7363,
      "👠": 7364,
      "👡": 7365,
      "👢": 7366,
      "👣": 7367,
      "👤": 7368,
      "👥": 7369,
      "👦": 7370,
      "👧": 7371,
      "👨": 7372,
      "👩": 7373,
      "👪": 7374,
      "👫": 7375,
      "👬": 7376,
      "👭": 7377,
      "👮": 7378,
      "👯": 7379,
      "👰": 7380,
      "👱": 7381,
      "👲": 7382,
      "👳": 7383,
      "👴": 7384,
      "👵": 7385,
      "👶": 7386,
      "👷": 7387,
      "👸": 7388,
      "👹": 7389,
      "👺": 7390,
      "👻": 7391,
      "👼": 7392,
      "👽": 7393,
      "👾": 7394,
      "👿": 7395,
      "💀": 7396,
      "💁": 7397,
      "💂": 7398,
      "💃": 7399,
      "💄": 7400,
      "💅": 7401,
      "💆": 7402,
      "💇": 7403,
      "💉": 7404,
      "💊": 7405,
      "💋": 7406,
      "💌": 7407,
      "💍": 7408,
      "💎": 7409,
      "💏": 7410,
      "💐": 7411,
      "💑": 7412,
      "💒": 7413,
      "💓": 7414,
      "💔": 7415,
      "💕": 7416,
      "💖": 7417,
      "💗": 7418,
      "💘": 7419,
      "💙": 7420,
      "💚": 7421,
      "💛": 7422,
      "💜": 7423,
      "💝": 7424,
      "💞": 7425,
      "💟": 7426,
      "💠": 7427,
      "💡": 7428,
      "💢": 7429,
      "💣": 7430,
      "💤": 7431,
      "💥": 7432,
      "💦": 7433,
      "💧": 7434,
      "💨": 7435,
      "💩": 7436,
      "💪": 7437,
      "💫": 7438,
      "💬": 7439,
      "💭": 7440,
      "💮": 7441,
      "💯": 7442,
      "💰": 7443,
      "💱": 7444,
      "💲": 7445,
      "💳": 7446,
      "💴": 7447,
      "💵": 7448,
      "💶": 7449,
      "💷": 7450,
      "💸": 7451,
      "💹": 7452,
      "💺": 7453,
      "💻": 7454,
      "💼": 7455,
      "💽": 7456,
      "💾": 7457,
      "💿": 7458,
      "📀": 7459,
      "📂": 7460,
      "📃": 7461,
      "📄": 7462,
      "📅": 7463,
      "📆": 7464,
      "📈": 7465,
      "📉": 7466,
      "📍": 7467,
      "📎": 7468,
      "📑": 7469,
      "📒": 7470,
      "📓": 7471,
      "📔": 7472,
      "📕": 7473,
      "📖": 7474,
      "📗": 7475,
      "📘": 7476,
      "📙": 7477,
      "📚": 7478,
      "📛": 7479,
      "📜": 7480,
      "📝": 7481,
      "📞": 7482,
      "📟": 7483,
      "📠": 7484,
      "📡": 7485,
      "📢": 7486,
      "📣": 7487,
      "📤": 7488,
      "📦": 7489,
      "📧": 7490,
      "📩": 7491,
      "📬": 7492,
      "📮": 7493,
      "📯": 7494,
      "📰": 7495,
      "📱": 7496,
      "📲": 7497,
      "📳": 7498,
      "📴": 7499,
      "📵": 7500,
      "📶": 7501,
      "📷": 7502,
      "📸": 7503,
      "📹": 7504,
      "📺": 7505,
      "📻": 7506,
      "📼": 7507,
      "📽": 7508,
      "📿": 7509,
      "🔀": 7510,
      "🔁": 7511,
      "🔂": 7512,
      "🔄": 7513,
      "🔅": 7514,
      "🔆": 7515,
      "🔇": 7516,
      "🔈": 7517,
      "🔉": 7518,
      "🔊": 7519,
      "🔋": 7520,
      "🔌": 7521,
      "🔍": 7522,
      "🔎": 7523,
      "🔐": 7524,
      "🔑": 7525,
      "🔒": 7526,
      "🔓": 7527,
      "🔔": 7528,
      "🔕": 7529,
      "🔖": 7530,
      "🔗": 7531,
      "🔘": 7532,
      "🔙": 7533,
      "🔚": 7534,
      "🔛": 7535,
      "🔜": 7536,
      "🔝": 7537,
      "🔞": 7538,
      "🔟": 7539,
      "🔡": 7540,
      "🔢": 7541,
      "🔥": 7542,
      "🔦": 7543,
      "🔧": 7544,
      "🔨": 7545,
      "🔩": 7546,
      "🔪": 7547,
      "🔫": 7548,
      "🔬": 7549,
      "🔭": 7550,
      "🔮": 7551,
      "🔯": 7552,
      "🔱": 7553,
      "🔲": 7554,
      "🔳": 7555,
      "🔴": 7556,
      "🔵": 7557,
      "🔷": 7558,
      "🔸": 7559,
      "🔹": 7560,
      "🔺": 7561,
      "🔻": 7562,
      "🔼": 7563,
      "🕆": 7564,
      "🕇": 7565,
      "🕈": 7566,
      "🕉": 7567,
      "🕊": 7568,
      "🕋": 7569,
      "🕌": 7570,
      "🕍": 7571,
      "🕎": 7572,
      "🕐": 7573,
      "🕑": 7574,
      "🕒": 7575,
      "🕓": 7576,
      "🕔": 7577,
      "🕕": 7578,
      "🕖": 7579,
      "🕗": 7580,
      "🕘": 7581,
      "🕙": 7582,
      "🕚": 7583,
      "🕛": 7584,
      "🕜": 7585,
      "🕝": 7586,
      "🕞": 7587,
      "🕟": 7588,
      "🕠": 7589,
      "🕡": 7590,
      "🕢": 7591,
      "🕣": 7592,
      "🕤": 7593,
      "🕥": 7594,
      "🕦": 7595,
      "🕧": 7596,
      "🕭": 7597,
      "🕯": 7598,
      "🕰": 7599,
      "🕳": 7600,
      "🕴": 7601,
      "🕵": 7602,
      "🕶": 7603,
      "🕷": 7604,
      "🕸": 7605,
      "🕹": 7606,
      "🕺": 7607,
      "🖊": 7608,
      "🖋": 7609,
      "🖌": 7610,
      "🖎": 7611,
      "🖐": 7612,
      "🖑": 7613,
      "🖒": 7614,
      "🖓": 7615,
      "🖕": 7616,
      "🖖": 7617,
      "🖤": 7618,
      "🖥": 7619,
      "🖱": 7620,
      "🖼": 7621,
      "🗑": 7622,
      "🗒": 7623,
      "🗜": 7624,
      "🗝": 7625,
      "🗞": 7626,
      "🗡": 7627,
      "🗣": 7628,
      "🗨": 7629,
      "🗯": 7630,
      "🗳": 7631,
      "🗺": 7632,
      "🗻": 7633,
      "🗼": 7634,
      "🗽": 7635,
      "🗾": 7636,
      "🗿": 7637,
      "😀": 7638,
      "😁": 7639,
      "😂": 7640,
      "😃": 7641,
      "😄": 7642,
      "😅": 7643,
      "😆": 7644,
      "😇": 7645,
      "😈": 7646,
      "😉": 7647,
      "😊": 7648,
      "😋": 7649,
      "😌": 7650,
      "😍": 7651,
      "😎": 7652,
      "😏": 7653,
      "😐": 7654,
      "😑": 7655,
      "😒": 7656,
      "😓": 7657,
      "😔": 7658,
      "😕": 7659,
      "😖": 7660,
      "😗": 7661,
      "😘": 7662,
      "😙": 7663,
      "😚": 7664,
      "😛": 7665,
      "😜": 7666,
      "😝": 7667,
      "😞": 7668,
      "😟": 7669,
      "😠": 7670,
      "😡": 7671,
      "😢": 7672,
      "😣": 7673,
      "😤": 7674,
      "😥": 7675,
      "😦": 7676,
      "😧": 7677,
      "😨": 7678,
      "😩": 7679,
      "😪": 7680,
      "😫": 7681,
      "😬": 7682,
      "😭": 7683,
      "😮": 7684,
      "😯": 7685,
      "😰": 7686,
      "😱": 7687,
      "😲": 7688,
      "😳": 7689,
      "😴": 7690,
      "😵": 7691,
      "😶": 7692,
      "😷": 7693,
      "😸": 7694,
      "😹": 7695,
      "😺": 7696,
      "😻": 7697,
      "😼": 7698,
      "😽": 7699,
      "😾": 7700,
      "😿": 7701,
      "🙀": 7702,
      "🙁": 7703,
      "🙂": 7704,
      "🙃": 7705,
      "🙄": 7706,
      "🙅": 7707,
      "🙆": 7708,
      "🙇": 7709,
      "🙈": 7710,
      "🙉": 7711,
      "🙊": 7712,
      "🙋": 7713,
      "🙌": 7714,
      "🙍": 7715,
      "🙎": 7716,
      "🙏": 7717,
      "🚀": 7718,
      "🚁": 7719,
      "🚂": 7720,
      "🚃": 7721,
      "🚄": 7722,
      "🚅": 7723,
      "🚈": 7724,
      "🚉": 7725,
      "🚌": 7726,
      "🚎": 7727,
      "🚐": 7728,
      "🚑": 7729,
      "🚒": 7730,
      "🚓": 7731,
      "🚔": 7732,
      "🚖": 7733,
      "🚗": 7734,
      "🚘": 7735,
      "🚙": 7736,
      "🚚": 7737,
      "🚜": 7738,
      "🚝": 7739,
      "🚠": 7740,
      "🚢": 7741,
      "🚣": 7742,
      "🚤": 7743,
      "🚧": 7744,
      "🚨": 7745,
      "🚩": 7746,
      "🚪": 7747,
      "🚫": 7748,
      "🚬": 7749,
      "🚭": 7750,
      "🚮": 7751,
      "🚯": 7752,
      "🚱": 7753,
      "🚲": 7754,
      "🚳": 7755,
      "🚴": 7756,
      "🚶": 7757,
      "🚷": 7758,
      "🚸": 7759,
      "🚹": 7760,
      "🚺": 7761,
      "🚻": 7762,
      "🚼": 7763,
      "🚽": 7764,
      "🚾": 7765,
      "🚿": 7766,
      "🛀": 7767,
      "🛁": 7768,
      "🛂": 7769,
      "🛃": 7770,
      "🛅": 7771,
      "🛋": 7772,
      "🛌": 7773,
      "🛍": 7774,
      "🛎": 7775,
      "🛏": 7776,
      "🛐": 7777,
      "🛑": 7778,
      "🛒": 7779,
      "🛠": 7780,
      "🛡": 7781,
      "🛢": 7782,
      "🛤": 7783,
      "🛩": 7784,
      "🛫": 7785,
      "🛬": 7786,
      "🛰": 7787,
      "🛴": 7788,
      "🤐": 7789,
      "🤑": 7790,
      "🤒": 7791,
      "🤓": 7792,
      "🤔": 7793,
      "🤕": 7794,
      "🤖": 7795,
      "🤗": 7796,
      "🤘": 7797,
      "🤙": 7798,
      "🤚": 7799,
      "🤛": 7800,
      "🤜": 7801,
      "🤝": 7802,
      "🤞": 7803,
      "🤠": 7804,
      "🤡": 7805,
      "🤢": 7806,
      "🤣": 7807,
      "🤤": 7808,
      "🤥": 7809,
      "🤦": 7810,
      "🤧": 7811,
      "🤰": 7812,
      "🤳": 7813,
      "🤴": 7814,
      "🤵": 7815,
      "🤶": 7816,
      "🤷": 7817,
      "🤹": 7818,
      "🤺": 7819,
      "🤼": 7820,
      "🥀": 7821,
      "🥁": 7822,
      "🥂": 7823,
      "🥃": 7824,
      "🥄": 7825,
      "🥅": 7826,
      "🥇": 7827,
      "🥈": 7828,
      "🥑": 7829,
      "🥒": 7830,
      "🥓": 7831,
      "🥔": 7832,
      "🥕": 7833,
      "🥖": 7834,
      "🥗": 7835,
      "🥘": 7836,
      "🥙": 7837,
      "🥚": 7838,
      "🥛": 7839,
      "🥜": 7840,
      "🥝": 7841,
      "🥞": 7842,
      "🥡": 7843,
      "🦀": 7844,
      "🦁": 7845,
      "🦂": 7846,
      "🦃": 7847,
      "🦄": 7848,
      "🦅": 7849,
      "🦆": 7850,
      "🦈": 7851,
      "🦉": 7852,
      "🦊": 7853,
      "🦋": 7854,
      "🦌": 7855,
      "🦍": 7856,
      "🦎": 7857,
      "🦐": 7858,
      "🦑": 7859,
      "🧀": 7860,
      "󰁦": 7861,
      "󰁩": 7862,
      "󰁬": 7863,
      "󾓦": 7864,
      "󾓬": 7865,
      "􀀳": 7866,
      "􀀶": 7867,
      "􀁦": 7868,
      "􀄏": 7869,
      "􀄐": 7870,
      "􀅶": 7871,
      "􀇀": 7872,
      "􀇁": 7873,
      "􀇆": 7874,
      "􀍞": 7875,
      "􀍟": 7876,
      "th": 7877,
      "in": 7878,
      "the": 7879,
      "an": 7880,
      "re": 7881,
      "er": 7882,
      "on": 7883,
      "is": 7884,
      "it": 7885,
      "ou": 7886,
      "at": 7887,
      "or": 7888,
      "to": 7889,
      "and": 7890,
      "en": 7891,
      "st": 7892,
      "al": 7893,
      "ing": 7894,
      "as": 7895,
      "ed": 7896,
      "es": 7897,
      "ar": 7898,
      "of": 7899,
      "le": 7900,
      "se": 7901,
      "ly": 7902,
      "ch": 7903,
      "ve": 7904,
      "om": 7905,
      "be": 7906,
      "ic": 7907,
      "for": 7908,
      "ad": 7909,
      "no": 7910,
      "ll": 7911,
      "this": 7912,
      "wi": 7913,
      "lo": 7914,
      "wh": 7915,
      "ut": 7916,
      "ver": 7917,
      "ac": 7918,
      "you": 7919,
      "gh": 7920,
      "li": 7921,
      "me": 7922,
      "that": 7923,
      "ro": 7924,
      "oo": 7925,
      "we": 7926,
      "he": 7927,
      "ti": 7928,
      "ay": 7929,
      "ha": 7930,
      "ld": 7931,
      "ke": 7932,
      "with": 7933,
      "de": 7934,
      "ge": 7935,
      "mo": 7936,
      "so": 7937,
      "my": 7938,
      "ter": 7939,
      "ab": 7940,
      "but": 7941,
      "are": 7942,
      "one": 7943,
      "ri": 7944,
      "was": 7945,
      "fe": 7946,
      "all": 7947,
      "do": 7948,
      "am": 7949,
      "un": 7950,
      "out": 7951,
      "not": 7952,
      "ent": 7953,
      "us": 7954,
      "ne": 7955,
      "com": 7956,
      "ght": 7957,
      "ir": 7958,
      "have": 7959,
      "ho": 7960,
      "si": 7961,
      "ce": 7962,
      "if": 7963,
      "ct": 7964,
      "pe": 7965,
      "su": 7966,
      "pl": 7967,
      "id": 7968,
      "ther": 7969,
      "very": 7970,
      "pro": 7971,
      "wor": 7972,
      "ould": 7973,
      "ally": 7974,
      "po": 7975,
      "gre": 7976,
      "ex": 7977,
      "ur": 7978,
      "they": 7979,
      "per": 7980,
      "ion": 7981,
      "ust": 7982,
      "ma": 7983,
      "tr": 7984,
      "ome": 7985,
      "con": 7986,
      "te": 7987,
      "ood": 7988,
      "go": 7989,
      "ks": 7990,
      "great": 7991,
      "up": 7992,
      "ul": 7993,
      "ie": 7994,
      "ap": 7995,
      "qu": 7996,
      "can": 7997,
      "fr": 7998,
      "end": 7999,
      "like": 8000,
      "oun": 8001,
      "il": 8002,
      "ta": 8003,
      "ts": 8004,
      "use": 8005,
      "co": 8006,
      "ice": 8007,
      "just": 8008,
      "some": 8009,
      "sh": 8010,
      "good": 8011,
      "any": 8012,
      "bo": 8013,
      "thing": 8014,
      "ack": 8015,
      "um": 8016,
      "boo": 8017,
      "ast": 8018,
      "tion": 8019,
      "ess": 8020,
      "ong": 8021,
      "from": 8022,
      "other": 8023,
      "im": 8024,
      "get": 8025,
      "her": 8026,
      "ant": 8027,
      "ard": 8028,
      "more": 8029,
      "ough": 8030,
      "ate": 8031,
      "ple": 8032,
      "pre": 8033,
      "ca": 8034,
      "them": 8035,
      "will": 8036,
      "ag": 8037,
      "able": 8038,
      "read": 8039,
      "would": 8040,
      "fin": 8041,
      "pr": 8042,
      "has": 8043,
      "way": 8044,
      "art": 8045,
      "ound": 8046,
      "these": 8047,
      "now": 8048,
      "em": 8049,
      "king": 8050,
      "when": 8051,
      "what": 8052,
      "well": 8053,
      "red": 8054,
      "whi": 8055,
      "ill": 8056,
      "ig": 8057,
      "ain": 8058,
      "than": 8059,
      "ven": 8060,
      "ation": 8061,
      "der": 8062,
      "there": 8063,
      "love": 8064,
      "his": 8065,
      "book": 8066,
      "about": 8067,
      "she": 8068,
      "du": 8069,
      "had": 8070,
      "ity": 8071,
      "ye": 8072,
      "act": 8073,
      "wn": 8074,
      "el": 8075,
      "loo": 8076,
      "ies": 8077,
      "time": 8078,
      "your": 8079,
      "sa": 8080,
      "too": 8081,
      "how": 8082,
      "by": 8083,
      "pp": 8084,
      "our": 8085,
      "ite": 8086,
      "itt": 8087,
      "ure": 8088,
      "ers": 8089,
      "bu": 8090,
      "really": 8091,
      "vie": 8092,
      "ist": 8093,
      "did": 8094,
      "who": 8095,
      "ck": 8096,
      "ory": 8097,
      "ink": 8098,
      "don": 8099,
      "cl": 8100,
      "gr": 8101,
      "does": 8102,
      "sc": 8103,
      "af": 8104,
      "av": 8105,
      "mu": 8106,
      "jo": 8107,
      "ars": 8108,
      "work": 8109,
      "its": 8110,
      "tt": 8111,
      "fo": 8112,
      "ps": 8113,
      "ble": 8114,
      "ick": 8115,
      "over": 8116,
      "only": 8117,
      "sp": 8118,
      "much": 8119,
      "ren": 8120,
      "ous": 8121,
      "produ": 8122,
      "ase": 8123,
      "ine": 8124,
      "bl": 8125,
      "char": 8126,
      "str": 8127,
      "cause": 8128,
      "ive": 8129,
      "ved": 8130,
      "ought": 8131,
      "bet": 8132,
      "tw": 8133,
      "play": 8134,
      "eas": 8135,
      "ind": 8136,
      "also": 8137,
      "ment": 8138,
      "dis": 8139,
      "which": 8140,
      "because": 8141,
      "off": 8142,
      "need": 8143,
      "every": 8144,
      "even": 8145,
      "their": 8146,
      "br": 8147,
      "ade": 8148,
      "ser": 8149,
      "fir": 8150,
      "int": 8151,
      "most": 8152,
      "au": 8153,
      "ight": 8154,
      "ep": 8155,
      "ves": 8156,
      "product": 8157,
      "back": 8158,
      "des": 8159,
      "story": 8160,
      "day": 8161,
      "were": 8162,
      "man": 8163,
      "ittle": 8164,
      "light": 8165,
      "little": 8166,
      "first": 8167,
      "sm": 8168,
      "hi": 8169,
      "after": 8170,
      "ction": 8171,
      "ful": 8172,
      "age": 8173,
      "want": 8174,
      "gu": 8175,
      "fect": 8176,
      "ass": 8177,
      "could": 8178,
      "know": 8179,
      "new": 8180,
      "ort": 8181,
      "vi": 8182,
      "ace": 8183,
      "put": 8184,
      "been": 8185,
      "comm": 8186,
      "wr": 8187,
      "ish": 8188,
      "ame": 8189,
      "00": 8190,
      "into": 8191,
      "nice": 8192,
      "kes": 8193,
      "cr": 8194,
      "whe": 8195,
      "wat": 8196,
      "di": 8197,
      "then": 8198,
      "low": 8199,
      "ality": 8200,
      "see": 8201,
      "still": 8202,
      "az": 8203,
      "pen": 8204,
      "ting": 8205,
      "ci": 8206,
      "ving": 8207,
      "ph": 8208,
      "view": 8209,
      "right": 8210,
      "works": 8211,
      "fl": 8212,
      "che": 8213,
      "ss": 8214,
      "less": 8215,
      "aw": 8216,
      "make": 8217,
      "two": 8218,
      "son": 8219,
      "perfect": 8220,
      "better": 8221,
      "buy": 8222,
      "dr": 8223,
      "lot": 8224,
      "urn": 8225,
      "long": 8226,
      "used": 8227,
      "sel": 8228,
      "ach": 8229,
      "col": 8230,
      "made": 8231,
      "dif": 8232,
      "think": 8233,
      "best": 8234,
      "mat": 8235,
      "ters": 8236,
      "say": 8237,
      "high": 8238,
      "ste": 8239,
      "down": 8240,
      "ans": 8241,
      "price": 8242,
      "cor": 8243,
      "sion": 8244,
      "ty": 8245,
      "ze": 8246,
      "quality": 8247,
      "got": 8248,
      "easy": 8249,
      "ue": 8250,
      "spe": 8251,
      "pur": 8252,
      "fun": 8253,
      "old": 8254,
      "cle": 8255,
      "charac": 8256,
      "seem": 8257,
      "though": 8258,
      "ily": 8259,
      "et": 8260,
      "feel": 8261,
      "ated": 8262,
      "vo": 8263,
      "where": 8264,
      "him": 8265,
      "side": 8266,
      "again": 8267,
      "mon": 8268,
      "commend": 8269,
      "happ": 8270,
      "set": 8271,
      "recommend": 8272,
      "tim": 8273,
      "bum": 8274,
      "ber": 8275,
      "try": 8276,
      "while": 8277,
      "thr": 8278,
      "air": 8279,
      "part": 8280,
      "min": 8281,
      "find": 8282,
      "ak": 8283,
      "fore": 8284,
      "self": 8285,
      "bit": 8286,
      "many": 8287,
      "hand": 8288,
      "peo": 8289,
      "turn": 8290,
      "bought": 8291,
      "fil": 8292,
      "people": 8293,
      "tri": 8294,
      "feren": 8295,
      "small": 8296,
      "add": 8297,
      "ang": 8298,
      "mar": 8299,
      "ance": 8300,
      "fit": 8301,
      "joy": 8302,
      "ree": 8303,
      "ually": 8304,
      "song": 8305,
      "album": 8306,
      "sto": 8307,
      "review": 8308,
      "may": 8309,
      "ased": 8310,
      "les": 8311,
      "car": 8312,
      "won": 8313,
      "game": 8314,
      "sure": 8315,
      "through": 8316,
      "never": 8317,
      "look": 8318,
      "hard": 8319,
      "didn": 8320,
      "pos": 8321,
      "stand": 8322,
      "sound": 8323,
      "enjoy": 8324,
      "vel": 8325,
      "years": 8326,
      "rest": 8327,
      "should": 8328,
      "ms": 8329,
      "amaz": 8330,
      "ors": 8331,
      "movie": 8332,
      "ical": 8333,
      "pect": 8334,
      "cont": 8335,
      "differen": 8336,
      "dy": 8337,
      "tal": 8338,
      "ways": 8339,
      "last": 8340,
      "exce": 8341,
      "pt": 8342,
      "purch": 8343,
      "gl": 8344,
      "tho": 8345,
      "big": 8346,
      "doesn": 8347,
      "come": 8348,
      "point": 8349,
      "mus": 8350,
      "under": 8351,
      "tain": 8352,
      "being": 8353,
      "few": 8354,
      "another": 8355,
      "ry": 8356,
      "life": 8357,
      "real": 8358,
      "hel": 8359,
      "sin": 8360,
      "keep": 8361,
      "gi": 8362,
      "comp": 8363,
      "ition": 8364,
      "going": 8365,
      "fi": 8366,
      "cre": 8367,
      "same": 8368,
      "ff": 8369,
      "enough": 8370,
      "before": 8371,
      "ger": 8372,
      "times": 8373,
      "here": 8374,
      "using": 8375,
      "take": 8376,
      "fort": 8377,
      "ence": 8378,
      "around": 8379,
      "sho": 8380,
      "own": 8381,
      "show": 8382,
      "series": 8383,
      "ip": 8384,
      "ason": 8385,
      "sim": 8386,
      "case": 8387,
      "stu": 8388,
      "ning": 8389,
      "cut": 8390,
      "something": 8391,
      "tty": 8392,
      "ange": 8393,
      "expect": 8394,
      "ces": 8395,
      "bat": 8396,
      "ise": 8397,
      "ever": 8398,
      "since": 8399,
      "proble": 8400,
      "fri": 8401,
      "ating": 8402,
      "sing": 8403,
      "sur": 8404,
      "ten": 8405,
      "ull": 8406,
      "ds": 8407,
      "ow": 8408,
      "far": 8409,
      "pretty": 8410,
      "hold": 8411,
      "start": 8412,
      "top": 8413,
      "inst": 8414,
      "ild": 8415,
      "dog": 8416,
      "clo": 8417,
      "par": 8418,
      "xt": 8419,
      "inte": 8420,
      "size": 8421,
      "those": 8422,
      "always": 8423,
      "let": 8424,
      "both": 8425,
      "que": 8426,
      "ens": 8427,
      "bro": 8428,
      "characters": 8429,
      "med": 8430,
      "ary": 8431,
      "without": 8432,
      "different": 8433,
      "ool": 8434,
      "year": 8435,
      "wa": 8436,
      "mi": 8437,
      "makes": 8438,
      "watch": 8439,
      "music": 8440,
      "10": 8441,
      "wer": 8442,
      "ug": 8443,
      "bad": 8444,
      "things": 8445,
      "lar": 8446,
      "avor": 8447,
      "phone": 8448,
      "ster": 8449,
      "ather": 8450,
      "head": 8451,
      "ably": 8452,
      "mis": 8453,
      "mag": 8454,
      "20": 8455,
      "fan": 8456,
      "friend": 8457,
      "ings": 8458,
      "loved": 8459,
      "cer": 8460,
      "scre": 8461,
      "pa": 8462,
      "cat": 8463,
      "found": 8464,
      "war": 8465,
      "ked": 8466,
      "gen": 8467,
      "op": 8468,
      "bre": 8469,
      "band": 8470,
      "box": 8471,
      "cent": 8472,
      "thought": 8473,
      "line": 8474,
      "each": 8475,
      "tre": 8476,
      "dri": 8477,
      "place": 8478,
      "looking": 8479,
      "run": 8480,
      "ious": 8481,
      "give": 8482,
      "ones": 8483,
      "defin": 8484,
      "ict": 8485,
      "inter": 8486,
      "tra": 8487,
      "je": 8488,
      "help": 8489,
      "cond": 8490,
      "class": 8491,
      "lt": 8492,
      "ash": 8493,
      "came": 8494,
      "worth": 8495,
      "why": 8496,
      "list": 8497,
      "ys": 8498,
      "film": 8499,
      "cess": 8500,
      "howe": 8501,
      "amer": 8502,
      "however": 8503,
      "excell": 8504,
      "lie": 8505,
      "ual": 8506,
      "mer": 8507,
      "interest": 8508,
      "water": 8509,
      "clu": 8510,
      "excellent": 8511,
      "sy": 8512,
      "seems": 8513,
      "val": 8514,
      "books": 8515,
      "pack": 8516,
      "ls": 8517,
      "actually": 8518,
      "mal": 8519,
      "itch": 8520,
      "coun": 8521,
      "sol": 8522,
      "fam": 8523,
      "ni": 8524,
      "fact": 8525,
      "install": 8526,
      "row": 8527,
      "ave": 8528,
      "cal": 8529,
      "person": 8530,
      "ton": 8531,
      "kind": 8532,
      "nor": 8533,
      "io": 8534,
      "cur": 8535,
      "reading": 8536,
      "ics": 8537,
      "ents": 8538,
      "comes": 8539,
      "looks": 8540,
      "issu": 8541,
      "amp": 8542,
      "star": 8543,
      "plac": 8544,
      "open": 8545,
      "ref": 8546,
      "sive": 8547,
      "tive": 8548,
      "pres": 8549,
      "ide": 8550,
      "happy": 8551,
      "cord": 8552,
      "pie": 8553,
      "iting": 8554,
      "loves": 8555,
      "ear": 8556,
      "power": 8557,
      "cover": 8558,
      "fine": 8559,
      "cri": 8560,
      "once": 8561,
      "next": 8562,
      "la": 8563,
      "quick": 8564,
      "such": 8565,
      "ward": 8566,
      "job": 8567,
      "sub": 8568,
      "kid": 8569,
      "ature": 8570,
      "definite": 8571,
      "fast": 8572,
      "ush": 8573,
      "ular": 8574,
      "ations": 8575,
      "super": 8576,
      "cho": 8577,
      "month": 8578,
      "res": 8579,
      "getting": 8580,
      "augh": 8581,
      "ail": 8582,
      "ef": 8583,
      "favor": 8584,
      "ult": 8585,
      "oney": 8586,
      "away": 8587,
      "mem": 8588,
      "ouse": 8589,
      "ft": 8590,
      "wonder": 8591,
      "comple": 8592,
      "world": 8593,
      "ign": 8594,
      "ok": 8595,
      "fic": 8596,
      "definitely": 8597,
      "ween": 8598,
      "quite": 8599,
      "link": 8600,
      "thor": 8601,
      "iz": 8602,
      "prob": 8603,
      "19": 8604,
      "wee": 8605,
      "order": 8606,
      "clean": 8607,
      "amazon": 8608,
      "batter": 8609,
      "sk": 8610,
      "having": 8611,
      "everything": 8612,
      "lu": 8613,
      "men": 8614,
      "dur": 8615,
      "cd": 8616,
      "ket": 8617,
      "ner": 8618,
      "room": 8619,
      "app": 8620,
      "care": 8621,
      "aut": 8622,
      "item": 8623,
      "reason": 8624,
      "ial": 8625,
      "comfort": 8626,
      "orig": 8627,
      "probably": 8628,
      "tell": 8629,
      "vide": 8630,
      "prote": 8631,
      "origin": 8632,
      "problem": 8633,
      "ately": 8634,
      "yet": 8635,
      "ob": 8636,
      "ically": 8637,
      "sha": 8638,
      "ath": 8639,
      "inclu": 8640,
      "ute": 8641,
      "anything": 8642,
      "money": 8643,
      "between": 8644,
      "toge": 8645,
      "together": 8646,
      "second": 8647,
      "said": 8648,
      "home": 8649,
      "isn": 8650,
      "ready": 8651,
      "rece": 8652,
      "rel": 8653,
      "must": 8654,
      "sty": 8655,
      "bed": 8656,
      "bag": 8657,
      "songs": 8658,
      "might": 8659,
      "llow": 8660,
      "ness": 8661,
      "led": 8662,
      "action": 8663,
      "ev": 8664,
      "ny": 8665,
      "aren": 8666,
      "main": 8667,
      "beaut": 8668,
      "port": 8669,
      "belie": 8670,
      "color": 8671,
      "almost": 8672,
      "call": 8673,
      "form": 8674,
      "night": 8675,
      "enti": 8676,
      "remo": 8677,
      "wanted": 8678,
      "stars": 8679,
      "wear": 8680,
      "done": 8681,
      "chr": 8682,
      "ced": 8683,
      "cou": 8684,
      "plain": 8685,
      "mind": 8686,
      "hal": 8687,
      "yes": 8688,
      "three": 8689,
      "ames": 8690,
      "nothing": 8691,
      "cap": 8692,
      "cus": 8693,
      "live": 8694,
      "child": 8695,
      "til": 8696,
      "eng": 8697,
      "version": 8698,
      "worked": 8699,
      "purchased": 8700,
      "ments": 8701,
      "sw": 8702,
      "bi": 8703,
      "ative": 8704,
      "needed": 8705,
      "full": 8706,
      "ww": 8707,
      "reg": 8708,
      "htt": 8709,
      "highly": 8710,
      "bs": 8711,
      "author": 8712,
      "rect": 8713,
      "tom": 8714,
      "character": 8715,
      "favorite": 8716,
      "wish": 8717,
      "easily": 8718,
      "vice": 8719,
      "cy": 8720,
      "stru": 8721,
      "short": 8722,
      "vis": 8723,
      "astic": 8724,
      "strong": 8725,
      "bar": 8726,
      "acks": 8727,
      "dec": 8728,
      "pict": 8729,
      "large": 8730,
      "ants": 8731,
      "exper": 8732,
      "hum": 8733,
      "free": 8734,
      "thin": 8735,
      "pping": 8736,
      "rele": 8737,
      "beg": 8738,
      "gets": 8739,
      "heav": 8740,
      "ru": 8741,
      "expected": 8742,
      "family": 8743,
      "iful": 8744,
      "conne": 8745,
      "days": 8746,
      "ier": 8747,
      "stuff": 8748,
      "pri": 8749,
      "cially": 8750,
      "card": 8751,
      "disap": 8752,
      "na": 8753,
      "lect": 8754,
      "lit": 8755,
      "house": 8756,
      "ates": 8757,
      "lin": 8758,
      "tru": 8759,
      "hour": 8760,
      "sever": 8761,
      "wal": 8762,
      "cour": 8763,
      "complete": 8764,
      "beautiful": 8765,
      "until": 8766,
      "comfortable": 8767,
      "vious": 8768,
      "win": 8769,
      "esome": 8770,
      "original": 8771,
      "tem": 8772,
      "several": 8773,
      "pped": 8774,
      "ken": 8775,
      "exact": 8776,
      "fits": 8777,
      "black": 8778,
      "gy": 8779,
      "supp": 8780,
      "stor": 8781,
      "maybe": 8782,
      "ted": 8783,
      "roll": 8784,
      "amazing": 8785,
      "ook": 8786,
      "change": 8787,
      "clear": 8788,
      "deal": 8789,
      "recei": 8790,
      "ding": 8791,
      "hope": 8792,
      "listen": 8793,
      "dered": 8794,
      "awesome": 8795,
      "espe": 8796,
      "took": 8797,
      "descri": 8798,
      "ither": 8799,
      "sof": 8800,
      "video": 8801,
      "dar": 8802,
      "especially": 8803,
      "others": 8804,
      "ctions": 8805,
      "purchase": 8806,
      "ia": 8807,
      "ised": 8808,
      "por": 8809,
      "ending": 8810,
      "tried": 8811,
      "gir": 8812,
      "plastic": 8813,
      "wom": 8814,
      "bas": 8815,
      "design": 8816,
      "picture": 8817,
      "anyone": 8818,
      "fall": 8819,
      "enjoyed": 8820,
      "ian": 8821,
      "ship": 8822,
      "whole": 8823,
      "return": 8824,
      "screen": 8825,
      "least": 8826,
      "shi": 8827,
      "vid": 8828,
      "couple": 8829,
      "press": 8830,
      "perfectly": 8831,
      "trying": 8832,
      "fully": 8833,
      "kids": 8834,
      "food": 8835,
      "ah": 8836,
      "interesting": 8837,
      "scen": 8838,
      "left": 8839,
      "50": 8840,
      "ater": 8841,
      "ball": 8842,
      "wasn": 8843,
      "ense": 8844,
      "making": 8845,
      "replac": 8846,
      "stead": 8847,
      "ience": 8848,
      "ility": 8849,
      "brand": 8850,
      "disappoint": 8851,
      "past": 8852,
      "overall": 8853,
      "daugh": 8854,
      "cas": 8855,
      "est": 8856,
      "plan": 8857,
      "vers": 8858,
      "wait": 8859,
      "har": 8860,
      "already": 8861,
      "takes": 8862,
      "leg": 8863,
      "lear": 8864,
      "del": 8865,
      "fre": 8866,
      "imag": 8867,
      "itten": 8868,
      "someone": 8869,
      "cial": 8870,
      "record": 8871,
      "true": 8872,
      "hot": 8873,
      "sli": 8874,
      "ctive": 8875,
      "stay": 8876,
      "sch": 8877,
      "liked": 8878,
      "months": 8879,
      "cks": 8880,
      "face": 8881,
      "ins": 8882,
      "ank": 8883,
      "enter": 8884,
      "else": 8885,
      "follow": 8886,
      "ump": 8887,
      "tor": 8888,
      "bot": 8889,
      "pu": 8890,
      "happen": 8891,
      "stic": 8892,
      "dv": 8893,
      "tit": 8894,
      "arch": 8895,
      "ordered": 8896,
      "hor": 8897,
      "went": 8898,
      "pair": 8899,
      "als": 8900,
      "reviews": 8901,
      "gn": 8902,
      "cli": 8903,
      "mas": 8904,
      "weight": 8905,
      "heavy": 8906,
      "unit": 8907,
      "cool": 8908,
      "track": 8909,
      "hu": 8910,
      "lid": 8911,
      "net": 8912,
      "board": 8913,
      "cheap": 8914,
      "rom": 8915,
      "ats": 8916,
      "post": 8917,
      "fer": 8918,
      "pain": 8919,
      "youn": 8920,
      "fig": 8921,
      "working": 8922,
      "quest": 8923,
      "either": 8924,
      "12": 8925,
      "allow": 8926,
      "half": 8927,
      "bri": 8928,
      "ded": 8929,
      "rock": 8930,
      "tail": 8931,
      "written": 8932,
      "battery": 8933,
      "surpr": 8934,
      "tu": 8935,
      "gri": 8936,
      "instead": 8937,
      "spo": 8938,
      "ions": 8939,
      "exactly": 8940,
      "appe": 8941,
      "ption": 8942,
      "daughter": 8943,
      "ches": 8944,
      "although": 8945,
      "feature": 8946,
      "key": 8947,
      "ages": 8948,
      "sex": 8949,
      "colle": 8950,
      "mean": 8951,
      "ount": 8952,
      "seen": 8953,
      "camer": 8954,
      "novel": 8955,
      "bul": 8956,
      "dro": 8957,
      "wonderful": 8958,
      "perfor": 8959,
      "sn": 8960,
      "stem": 8961,
      "pick": 8962,
      "gener": 8963,
      "possi": 8964,
      "hear": 8965,
      "heart": 8966,
      "wrong": 8967,
      "absol": 8968,
      "gif": 8969,
      "vol": 8970,
      "piece": 8971,
      "doing": 8972,
      "num": 8973,
      "ra": 8974,
      "understand": 8975,
      "gar": 8976,
      "fair": 8977,
      "lock": 8978,
      "kill": 8979,
      "hone": 8980,
      "ago": 8981,
      "absolute": 8982,
      "mom": 8983,
      "playing": 8984,
      "ended": 8985,
      "level": 8986,
      "finish": 8987,
      "pop": 8988,
      "mix": 8989,
      "utes": 8990,
      "pull": 8991,
      "style": 8992,
      "received": 8993,
      "ont": 8994,
      "along": 8995,
      "protect": 8996,
      "gest": 8997,
      "ared": 8998,
      "everyone": 8999,
      "body": 9000,
      "swe": 9001,
      "dd": 9002,
      "arp": 9003,
      "date": 9004,
      "break": 9005,
      "goes": 9006,
      "rather": 9007,
      "writing": 9008,
      "close": 9009,
      "started": 9010,
      "couldn": 9011,
      "ross": 9012,
      "mater": 9013,
      "issues": 9014,
      "expen": 9015,
      "system": 9016,
      "ject": 9017,
      "etc": 9018,
      "saw": 9019,
      "30": 9020,
      "minutes": 9021,
      "tv": 9022,
      "believe": 9023,
      "move": 9024,
      "dvd": 9025,
      "honest": 9026,
      "ned": 9027,
      "ped": 9028,
      "thanks": 9029,
      "extra": 9030,
      "week": 9031,
      "200": 9032,
      "stre": 9033,
      "material": 9034,
      "sl": 9035,
      "ird": 9036,
      "problems": 9037,
      "certain": 9038,
      "type": 9039,
      "normal": 9040,
      "gt": 9041,
      "during": 9042,
      "contin": 9043,
      "pay": 9044,
      "cost": 9045,
      "dark": 9046,
      "thank": 9047,
      "land": 9048,
      "chang": 9049,
      "15": 9050,
      "lead": 9051,
      "ju": 9052,
      "arri": 9053,
      "games": 9054,
      "needs": 9055,
      "var": 9056,
      "coming": 9057,
      "fa": 9058,
      "white": 9059,
      "grand": 9060,
      "dam": 9061,
      "pan": 9062,
      "longer": 9063,
      "sell": 9064,
      "build": 9065,
      "sat": 9066,
      "fill": 9067,
      "qui": 9068,
      "100": 9069,
      "sum": 9070,
      "hy": 9071,
      "course": 9072,
      "test": 9073,
      "expensive": 9074,
      "quickly": 9075,
      "ext": 9076,
      "ited": 9077,
      "mess": 9078,
      "simple": 9079,
      "wood": 9080,
      "ouch": 9081,
      "friends": 9082,
      "hours": 9083,
      "py": 9084,
      "inside": 9085,
      "haven": 9086,
      "sit": 9087,
      "mid": 9088,
      "pat": 9089,
      "ply": 9090,
      "ends": 9091,
      "felt": 9092,
      "store": 9093,
      "sett": 9094,
      "connect": 9095,
      "stur": 9096,
      "dou": 9097,
      "camera": 9098,
      "ists": 9099,
      "bor": 9100,
      "sle": 9101,
      "dre": 9102,
      "stick": 9103,
      "buying": 9104,
      "sign": 9105,
      "tight": 9106,
      "contro": 9107,
      "kee": 9108,
      "fu": 9109,
      "finally": 9110,
      "ws": 9111,
      "front": 9112,
      "mor": 9113,
      "slow": 9114,
      "ying": 9115,
      "vent": 9116,
      "americ": 9117,
      "ol": 9118,
      "girl": 9119,
      "begin": 9120,
      "ices": 9121,
      "da": 9122,
      "absolutely": 9123,
      "plug": 9124,
      "bright": 9125,
      "guess": 9126,
      "https": 9127,
      "four": 9128,
      "issue": 9129,
      "ams": 9130,
      "plot": 9131,
      "lots": 9132,
      "near": 9133,
      "offe": 9134,
      "myself": 9135,
      "ged": 9136,
      "ons": 9137,
      "toy": 9138,
      "dep": 9139,
      "load": 9140,
      "switch": 9141,
      "door": 9142,
      "medi": 9143,
      "young": 9144,
      "wouldn": 9145,
      "name": 9146,
      "ilar": 9147,
      "button": 9148,
      "inc": 9149,
      "cute": 9150,
      "sometimes": 9151,
      "sup": 9152,
      "complain": 9153,
      "entire": 9154,
      "pho": 9155,
      "spr": 9156,
      "diffic": 9157,
      "often": 9158,
      "season": 9159,
      "gave": 9160,
      "hit": 9161,
      "metal": 9162,
      "cu": 9163,
      "later": 9164,
      "velo": 9165,
      "solid": 9166,
      "grap": 9167,
      "uni": 9168,
      "support": 9169,
      "sal": 9170,
      "sider": 9171,
      "sturdy": 9172,
      "stop": 9173,
      "decid": 9174,
      "lights": 9175,
      "plus": 9176,
      "member": 9177,
      "cable": 9178,
      "idea": 9179,
      "christ": 9180,
      "given": 9181,
      "search": 9182,
      "flo": 9183,
      "ground": 9184,
      "oot": 9185,
      "played": 9186,
      "gift": 9187,
      "bly": 9188,
      "boy": 9189,
      "blue": 9190,
      "dogs": 9191,
      "completely": 9192,
      "ging": 9193,
      "ky": 9194,
      "glad": 9195,
      "ane": 9196,
      "cast": 9197,
      "detail": 9198,
      "mine": 9199,
      "motion": 9200,
      "single": 9201,
      "sounds": 9202,
      "rat": 9203,
      "extre": 9204,
      "consider": 9205,
      "guy": 9206,
      "sil": 9207,
      "soft": 9208,
      "bottom": 9209,
      "ement": 9210,
      "direct": 9211,
      "ient": 9212,
      "pes": 9213,
      "cup": 9214,
      "posed": 9215,
      "unch": 9216,
      "ability": 9217,
      "hus": 9218,
      "classic": 9219,
      "experience": 9220,
      "ot": 9221,
      "value": 9222,
      "school": 9223,
      "itself": 9224,
      "sou": 9225,
      "simply": 9226,
      "aged": 9227,
      "mov": 9228,
      "wall": 9229,
      "check": 9230,
      "addition": 9231,
      "antly": 9232,
      "tech": 9233,
      "non": 9234,
      "kept": 9235,
      "heard": 9236,
      "beat": 9237,
      "dat": 9238,
      "log": 9239,
      "uses": 9240,
      "disappointed": 9241,
      "extreme": 9242,
      "forward": 9243,
      "ric": 9244,
      "touch": 9245,
      "stories": 9246,
      "kni": 9247,
      "ible": 9248,
      "partic": 9249,
      "taste": 9250,
      "pose": 9251,
      "due": 9252,
      "hook": 9253,
      "rent": 9254,
      "hun": 9255,
      "feels": 9256,
      "den": 9257,
      "mil": 9258,
      "iced": 9259,
      "performan": 9260,
      "bal": 9261,
      "lost": 9262,
      "adjust": 9263,
      "oh": 9264,
      "photo": 9265,
      "movies": 9266,
      "import": 9267,
      "wife": 9268,
      "ling": 9269,
      "develo": 9270,
      "sor": 9271,
      "usually": 9272,
      "ond": 9273,
      "oc": 9274,
      "previous": 9275,
      "parts": 9276,
      "trans": 9277,
      "huge": 9278,
      "husband": 9279,
      "cking": 9280,
      "ring": 9281,
      "paper": 9282,
      "fortun": 9283,
      "iness": 9284,
      "soon": 9285,
      "hero": 9286,
      "pi": 9287,
      "bus": 9288,
      "tool": 9289,
      "van": 9290,
      "possible": 9291,
      "guit": 9292,
      "mention": 9293,
      "wise": 9294,
      "80": 9295,
      "mm": 9296,
      "coffe": 9297,
      "slight": 9298,
      "sweet": 9299,
      "keeps": 9300,
      "tern": 9301,
      "smaller": 9302,
      "speak": 9303,
      "arrived": 9304,
      "charge": 9305,
      "audi": 9306,
      "present": 9307,
      "aking": 9308,
      "glass": 9309,
      "wash": 9310,
      "zz": 9311,
      "mach": 9312,
      "collection": 9313,
      "prom": 9314,
      "handle": 9315,
      "difficult": 9316,
      "vert": 9317,
      "pieces": 9318,
      "tach": 9319,
      "space": 9320,
      "ben": 9321,
      "sco": 9322,
      "recommended": 9323,
      "note": 9324,
      "sed": 9325,
      "heal": 9326,
      "pass": 9327,
      "coffee": 9328,
      "dry": 9329,
      "provid": 9330,
      "special": 9331,
      "ker": 9332,
      "exc": 9333,
      "against": 9334,
      "children": 9335,
      "carry": 9336,
      "ley": 9337,
      "relation": 9338,
      "gives": 9339,
      "player": 9340,
      "pet": 9341,
      "ses": 9342,
      "prof": 9343,
      "11": 9344,
      "ulti": 9345,
      "shows": 9346,
      "ities": 9347,
      "gree": 9348,
      "lim": 9349,
      "60": 9350,
      "resu": 9351,
      "woman": 9352,
      "figure": 9353,
      "data": 9354,
      "writ": 9355,
      "ism": 9356,
      "drive": 9357,
      "smoo": 9358,
      "concer": 9359,
      "christmas": 9360,
      "ping": 9361,
      "rad": 9362,
      "redd": 9363,
      "opin": 9364,
      "dist": 9365,
      "cannot": 9366,
      "www": 9367,
      "voice": 9368,
      "funny": 9369,
      "itting": 9370,
      "leave": 9371,
      "requi": 9372,
      "mother": 9373,
      "sense": 9374,
      "please": 9375,
      "serious": 9376,
      "chan": 9377,
      "sun": 9378,
      "products": 9379,
      "ges": 9380,
      "gan": 9381,
      "decided": 9382,
      "says": 9383,
      "today": 9384,
      "hist": 9385,
      "control": 9386,
      "thick": 9387,
      "sme": 9388,
      "rub": 9389,
      "similar": 9390,
      "gun": 9391,
      "based": 9392,
      "fanta": 9393,
      "ilt": 9394,
      "instru": 9395,
      "remember": 9396,
      "sus": 9397,
      "shoes": 9398,
      "comput": 9399,
      "fli": 9400,
      "40": 9401,
      "fans": 9402,
      "colors": 9403,
      "iny": 9404,
      "cons": 9405,
      "taking": 9406,
      "hang": 9407,
      "ured": 9408,
      "siz": 9409,
      "fut": 9410,
      "rid": 9411,
      "option": 9412,
      "stra": 9413,
      "die": 9414,
      "regular": 9415,
      "nb": 9416,
      "company": 9417,
      "romance": 9418,
      "god": 9419,
      "amount": 9420,
      "running": 9421,
      "grow": 9422,
      "truly": 9423,
      "ital": 9424,
      "become": 9425,
      "attach": 9426,
      "particular": 9427,
      "ident": 9428,
      "deli": 9429,
      "hands": 9430,
      "cket": 9431,
      "mic": 9432,
      "entertain": 9433,
      "bin": 9434,
      "easier": 9435,
      "fight": 9436,
      "warm": 9437,
      "terri": 9438,
      "range": 9439,
      "fantastic": 9440,
      "table": 9441,
      "plic": 9442,
      "bab": 9443,
      "multi": 9444,
      "fire": 9445,
      "extremely": 9446,
      "reddit": 9447,
      "feet": 9448,
      "ror": 9449,
      "16": 9450,
      "wire": 9451,
      "brother": 9452,
      "five": 9453,
      "elect": 9454,
      "safe": 9455,
      "larger": 9456,
      "contain": 9457,
      "standard": 9458,
      "jor": 9459,
      "fle": 9460,
      "ific": 9461,
      "grou": 9462,
      "ler": 9463,
      "disc": 9464,
      "shipping": 9465,
      "within": 9466,
      "number": 9467,
      "ize": 9468,
      "fail": 9469,
      "emotion": 9470,
      "watching": 9471,
      "guitar": 9472,
      "dead": 9473,
      "match": 9474,
      "poor": 9475,
      "ution": 9476,
      "learn": 9477,
      "irt": 9478,
      "release": 9479,
      "update": 9480,
      "tracks": 9481,
      "matter": 9482,
      "replace": 9483,
      "mode": 9484,
      "outside": 9485,
      "ney": 9486,
      "smooth": 9487,
      "ints": 9488,
      "ized": 9489,
      "hn": 9490,
      "round": 9491,
      "history": 9492,
      "aging": 9493,
      "avail": 9494,
      "future": 9495,
      "cab": 9496,
      "lan": 9497,
      "oud": 9498,
      "ien": 9499,
      "lens": 9500,
      "master": 9501,
      "ili": 9502,
      "ask": 9503,
      "exam": 9504,
      "wants": 9505,
      "decent": 9506,
      "recent": 9507,
      "push": 9508,
      "father": 9509,
      "spec": 9510,
      "att": 9511,
      "weeks": 9512,
      "leav": 9513,
      "cats": 9514,
      "included": 9515,
      "looked": 9516,
      "conf": 9517,
      "replacement": 9518,
      "scenes": 9519,
      "bon": 9520,
      "human": 9521,
      "tot": 9522,
      "sad": 9523,
      "added": 9524,
      "apart": 9525,
      "ele": 9526,
      "count": 9527,
      "suc": 9528,
      "satis": 9529,
      "cept": 9530,
      "sug": 9531,
      "early": 9532,
      "seemed": 9533,
      "batteries": 9534,
      "ator": 9535,
      "aim": 9536,
      "area": 9537,
      "nbsp": 9538,
      "smell": 9539,
      "moun": 9540,
      "giving": 9541,
      "fortunately": 9542,
      "told": 9543,
      "doll": 9544,
      "itive": 9545,
      "draw": 9546,
      "john": 9547,
      "hind": 9548,
      "knife": 9549,
      "enty": 9550,
      "rating": 9551,
      "auto": 9552,
      "os": 9553,
      "nat": 9554,
      "service": 9555,
      "described": 9556,
      "means": 9557,
      "iso": 9558,
      "opinion": 9559,
      "built": 9560,
      "available": 9561,
      "appro": 9562,
      "late": 9563,
      "ield": 9564,
      "effect": 9565,
      "ues": 9566,
      "fac": 9567,
      "important": 9568,
      "proper": 9569,
      "myster": 9570,
      "speed": 9571,
      "flash": 9572,
      "save": 9573,
      "obvious": 9574,
      "plo": 9575,
      "met": 9576,
      "fix": 9577,
      "words": 9578,
      "http": 9579,
      "correct": 9580,
      "wast": 9581,
      "dle": 9582,
      "holds": 9583,
      "device": 9584,
      "difference": 9585,
      "publ": 9586,
      "page": 9587,
      "computer": 9588,
      "word": 9589,
      "cm": 9590,
      "death": 9591,
      "flow": 9592,
      "suggest": 9593,
      "performance": 9594,
      "bring": 9595,
      "train": 9596,
      "rv": 9597,
      "tun": 9598,
      "thinking": 9599,
      "iety": 9600,
      "advert": 9601,
      "pol": 9602,
      "pleased": 9603,
      "women": 9604,
      "totally": 9605,
      "resp": 9606,
      "knew": 9607,
      "yourself": 9608,
      "anim": 9609,
      "14": 9610,
      "bow": 9611,
      "beginning": 9612,
      "aper": 9613,
      "13": 9614,
      "flavor": 9615,
      "deep": 9616,
      "called": 9617,
      "eat": 9618,
      "behind": 9619,
      "pressed": 9620,
      "older": 9621,
      "sent": 9622,
      "impro": 9623,
      "foot": 9624,
      "ove": 9625,
      "current": 9626,
      "dig": 9627,
      "phones": 9628,
      "guys": 9629,
      "green": 9630,
      "health": 9631,
      "installed": 9632,
      "burn": 9633,
      "tle": 9634,
      "sis": 9635,
      "durable": 9636,
      "dan": 9637,
      "ming": 9638,
      "certainly": 9639,
      "dp": 9640,
      "stri": 9641,
      "major": 9642,
      "bott": 9643,
      "edge": 9644,
      "albums": 9645,
      "18": 9646,
      "features": 9647,
      "images": 9648,
      "vocal": 9649,
      "male": 9650,
      "70": 9651,
      "position": 9652,
      "bir": 9653,
      "laugh": 9654,
      "instructions": 9655,
      "ument": 9656,
      "bel": 9657,
      "windo": 9658,
      "step": 9659,
      "gg": 9660,
      "event": 9661,
      "travel": 9662,
      "ile": 9663,
      "sem": 9664,
      "supposed": 9665,
      "leng": 9666,
      "function": 9667,
      "graph": 9668,
      "logy": 9669,
      "american": 9670,
      "pad": 9671,
      "kit": 9672,
      "reader": 9673,
      "ising": 9674,
      "chance": 9675,
      "strap": 9676,
      "ale": 9677,
      "slightly": 9678,
      "episo": 9679,
      "screw": 9680,
      "iron": 9681,
      "bers": 9682,
      "liter": 9683,
      "luck": 9684,
      "gram": 9685,
      "length": 9686,
      "preci": 9687,
      "dev": 9688,
      "usb": 9689,
      "personal": 9690,
      "flat": 9691,
      "apter": 9692,
      "linked": 9693,
      "prefer": 9694,
      "istic": 9695,
      "straight": 9696,
      "team": 9697,
      "vest": 9698,
      "formation": 9699,
      "known": 9700,
      "turned": 9701,
      "tiv": 9702,
      "print": 9703,
      "model": 9704,
      "unk": 9705,
      "25": 9706,
      "saying": 9707,
      "relationship": 9708,
      "coll": 9709,
      "write": 9710,
      "nar": 9711,
      "hol": 9712,
      "moder": 9713,
      "alone": 9714,
      "ison": 9715,
      "fur": 9716,
      "ware": 9717,
      "spect": 9718,
      "mark": 9719,
      "wide": 9720,
      "hoo": 9721,
      "spir": 9722,
      "sort": 9723,
      "haps": 9724,
      "azy": 9725,
      "throw": 9726,
      "okay": 9727,
      "rich": 9728,
      "country": 9729,
      "ines": 9730,
      "oil": 9731,
      "sand": 9732,
      "anyway": 9733,
      "asure": 9734,
      "ire": 9735,
      "otherwise": 9736,
      "title": 9737,
      "flu": 9738,
      "including": 9739,
      "unless": 9740,
      "inch": 9741,
      "lay": 9742,
      "copy": 9743,
      "ades": 9744,
      "ural": 9745,
      "asing": 9746,
      "base": 9747,
      "except": 9748,
      "perhaps": 9749,
      "baby": 9750,
      "town": 9751,
      "incred": 9752,
      "ama": 9753,
      "filter": 9754,
      "group": 9755,
      "cold": 9756,
      "ki": 9757,
      "nicely": 9758,
      "remove": 9759,
      "unfortunately": 9760,
      "utf": 9761,
      "reli": 9762,
      "turns": 9763,
      "acting": 9764,
      "cro": 9765,
      "sets": 9766,
      "setting": 9767,
      "oper": 9768,
      "hate": 9769,
      "machine": 9770,
      "feeling": 9771,
      "nam": 9772,
      "ried": 9773,
      "selves": 9774,
      "gue": 9775,
      "sharp": 9776,
      "fresh": 9777,
      "pot": 9778,
      "fied": 9779,
      "tea": 9780,
      "equ": 9781,
      "ina": 9782,
      "lack": 9783,
      "gone": 9784,
      "sens": 9785,
      "dire": 9786,
      "000": 9787,
      "feed": 9788,
      "ga": 9789,
      "happened": 9790,
      "plenty": 9791,
      "local": 9792,
      "kets": 9793,
      "likes": 9794,
      "lol": 9795,
      "yeah": 9796,
      "lives": 9797,
      "fing": 9798,
      "cook": 9799,
      "alo": 9800,
      "gold": 9801,
      "paren": 9802,
      "igh": 9803,
      "lts": 9804,
      "pic": 9805,
      "aa": 9806,
      "sequ": 9807,
      "intro": 9808,
      "hes": 9809,
      "immedi": 9810,
      "tention": 9811,
      "items": 9812,
      "trou": 9813,
      "organ": 9814,
      "din": 9815,
      "himself": 9816,
      "third": 9817,
      "ently": 9818,
      "taken": 9819,
      "gro": 9820,
      "hur": 9821,
      "scene": 9822,
      "txt": 9823,
      "helps": 9824,
      "wel": 9825,
      "href": 9826,
      "sions": 9827,
      "vin": 9828,
      "situ": 9829,
      "state": 9830,
      "process": 9831,
      "const": 9832,
      "rvw": 9833,
      "condition": 9834,
      "plays": 9835,
      "ering": 9836,
      "pract": 9837,
      "nut": 9838,
      "bing": 9839,
      "middle": 9840,
      "tic": 9841,
      "hair": 9842,
      "radio": 9843,
      "comment": 9844,
      "rain": 9845,
      "coo": 9846,
      "information": 9847,
      "necess": 9848,
      "compared": 9849,
      "pper": 9850,
      "heat": 9851,
      "bes": 9852,
      "likely": 9853,
      "17": 9854,
      "sold": 9855,
      "dest": 9856,
      "law": 9857,
      "fairly": 9858,
      "fold": 9859,
      "fab": 9860,
      "surprised": 9861,
      "mp": 9862,
      "question": 9863,
      "anno": 9864,
      "none": 9865,
      "squ": 9866,
      "business": 9867,
      "mr": 9868,
      "bigger": 9869,
      "ith": 9870,
      "road": 9871,
      "putting": 9872,
      "appreci": 9873,
      "held": 9874,
      "seeing": 9875,
      "sight": 9876,
      "ba": 9877,
      "tube": 9878,
      "pup": 9879,
      "chris": 9880,
      "notice": 9881,
      "mur": 9882,
      "cir": 9883,
      "living": 9884,
      "scrat": 9885,
      "released": 9886,
      "broken": 9887,
      "success": 9888,
      "ties": 9889,
      "cards": 9890,
      "hell": 9891,
      "cin": 9892,
      "project": 9893,
      "ron": 9894,
      "above": 9895,
      "anger": 9896,
      "access": 9897,
      "max": 9898,
      "rubber": 9899,
      "hd": 9900,
      "agree": 9901,
      "attention": 9902,
      "lyr": 9903,
      "knows": 9904,
      "gon": 9905,
      "custo": 9906,
      "sen": 9907,
      "sam": 9908,
      "avo": 9909,
      "accur": 9910,
      "across": 9911,
      "mit": 9912,
      "pages": 9913,
      "lines": 9914,
      "vac": 9915,
      "advertised": 9916,
      "blade": 9917,
      "eyes": 9918,
      "broke": 9919,
      "ban": 9920,
      "pictures": 9921,
      "lap": 9922,
      "lad": 9923,
      "cing": 9924,
      "arm": 9925,
      "dge": 9926,
      "shot": 9927,
      "ford": 9928,
      "package": 9929,
      "mostly": 9930,
      "ii": 9931,
      "catch": 9932,
      "wind": 9933,
      "choice": 9934,
      "bur": 9935,
      "desp": 9936,
      "constru": 9937,
      "wheel": 9938,
      "fly": 9939,
      "respon": 9940,
      "ham": 9941,
      "treat": 9942,
      "ures": 9943,
      "90": 9944,
      "cha": 9945,
      "reach": 9946,
      "crit": 9947,
      "claim": 9948,
      "throughout": 9949,
      "vered": 9950,
      "tend": 9951,
      "text": 9952,
      "loose": 9953,
      "happens": 9954,
      "ray": 9955,
      "ran": 9956,
      "wow": 9957,
      "assem": 9958,
      "wards": 9959,
      "rap": 9960,
      "lli": 9961,
      "trad": 9962,
      "loc": 9963,
      "mac": 9964,
      "example": 9965,
      "spend": 9966,
      "ories": 9967,
      "tray": 9968,
      "cheaper": 9969,
      "aring": 9970,
      "party": 9971,
      "moving": 9972,
      "engl": 9973,
      "bra": 9974,
      "invol": 9975,
      "conven": 9976,
      "tape": 9977,
      "bt": 9978,
      "cam": 9979,
      "aks": 9980,
      "description": 9981,
      "bass": 9982,
      "perio": 9983,
      "fective": 9984,
      "antic": 9985,
      "pocket": 9986,
      "sec": 9987,
      "ior": 9988,
      "invest": 9989,
      "basically": 9990,
      "points": 9991,
      "attr": 9992,
      "arely": 9993,
      "jack": 9994,
      "themselves": 9995,
      "whate": 9996,
      "teen": 9997,
      "immediately": 9998,
      "brush": 9999,
      "tten": 10000,
      "repe": 10001,
      "explain": 10002,
      "mount": 10003,
      "audio": 10004,
      "mc": 10005,
      "whatever": 10006,
      "pc": 10007,
      "typ": 10008,
      "somewhat": 10009,
      "rated": 10010,
      "mail": 10011,
      "ore": 10012,
      "kitch": 10013,
      "bill": 10014,
      "despite": 10015,
      "crazy": 10016,
      "tar": 10017,
      "covered": 10018,
      "sleep": 10019,
      "floor": 10020,
      "lower": 10021,
      "rate": 10022,
      "neg": 10023,
      "regard": 10024,
      "lets": 10025,
      "secre": 10026,
      "starts": 10027,
      "separ": 10028,
      "usual": 10029,
      "loud": 10030,
      "fy": 10031,
      "mill": 10032,
      "kitchen": 10033,
      "flaw": 10034,
      "films": 10035,
      "message": 10036,
      "walk": 10037,
      "tage": 10038,
      "higher": 10039,
      "eye": 10040,
      "gle": 10041,
      "thri": 10042,
      "gs": 10043,
      "ished": 10044,
      "ghter": 10045,
      "missing": 10046,
      "roy": 10047,
      "weak": 10048,
      "aver": 10049,
      "active": 10050,
      "interested": 10051,
      "program": 10052,
      "skin": 10053,
      "recently": 10054,
      "opening": 10055,
      "unique": 10056,
      "zer": 10057,
      "ris": 10058,
      "waste": 10059,
      "useful": 10060,
      "dim": 10061,
      "bike": 10062,
      "market": 10063,
      "polit": 10064,
      "ee": 10065,
      "drop": 10066,
      "deser": 10067,
      "online": 10068,
      "whether": 10069,
      "standing": 10070,
      "dent": 10071,
      "paid": 10072,
      "actual": 10073,
      "summer": 10074,
      "changed": 10075,
      "gotten": 10076,
      "city": 10077,
      "ax": 10078,
      "appear": 10079,
      "six": 10080,
      "final": 10081,
      "remain": 10082,
      "mir": 10083,
      "fish": 10084,
      "hood": 10085,
      "listening": 10086,
      "enjoyable": 10087,
      "atic": 10088,
      "hole": 10089,
      "nearly": 10090,
      "mee": 10091,
      "teach": 10092,
      "drag": 10093,
      "seat": 10094,
      "talk": 10095,
      "sorry": 10096,
      "tch": 10097,
      "ites": 10098,
      "keeping": 10099,
      "pod": 10100,
      "continue": 10101,
      "micro": 10102,
      "advent": 10103,
      "ulous": 10104,
      "focus": 10105,
      "quie": 10106,
      "trust": 10107,
      "ational": 10108,
      "kno": 10109,
      "remote": 10110,
      "mystery": 10111,
      "replaced": 10112,
      "volu": 10113,
      "wearing": 10114,
      "shit": 10115,
      "ples": 10116,
      "def": 10117,
      "tools": 10118,
      "volume": 10119,
      "craf": 10120,
      "grade": 10121,
      "sides": 10122,
      "bey": 10123,
      "chall": 10124,
      "moment": 10125,
      "miss": 10126,
      "mouse": 10127,
      "charger": 10128,
      "lor": 10129,
      "tly": 10130,
      "powerful": 10131,
      "hid": 10132,
      "24": 10133,
      "bottle": 10134,
      "talking": 10135,
      "introdu": 10136,
      "aid": 10137,
      "shoe": 10138,
      "ese": 10139,
      "force": 10140,
      "impressed": 10141,
      "camp": 10142,
      "covers": 10143,
      "ances": 10144,
      "comments": 10145,
      "attem": 10146,
      "sour": 10147,
      "recording": 10148,
      "trouble": 10149,
      "famili": 10150,
      "pac": 10151,
      "stock": 10152,
      "research": 10153,
      "lla": 10154,
      "entertaining": 10155,
      "pas": 10156,
      "onto": 10157,
      "purpose": 10158,
      "lon": 10159,
      "lyrics": 10160,
      "parents": 10161,
      "bloo": 10162,
      "forget": 10163,
      "jour": 10164,
      "pants": 10165,
      "spray": 10166,
      "cross": 10167,
      "holding": 10168,
      "bath": 10169,
      "spot": 10170,
      "ener": 10171,
      "aming": 10172,
      "multiple": 10173,
      "questions": 10174,
      "lling": 10175,
      "vable": 10176,
      "finished": 10177,
      "blo": 10178,
      "waiting": 10179,
      "dom": 10180,
      "protection": 10181,
      "hoping": 10182,
      "toys": 10183,
      "tast": 10184,
      "anti": 10185,
      "humor": 10186,
      "general": 10187,
      "acc": 10188,
      "double": 10189,
      "effort": 10190,
      "holes": 10191,
      "period": 10192,
      "indi": 10193,
      "secure": 10194,
      "noticed": 10195,
      "cases": 10196,
      "ress": 10197,
      "tough": 10198,
      "shel": 10199,
      "handy": 10200,
      "natural": 10201,
      "twist": 10202,
      "herself": 10203,
      "gas": 10204,
      "skill": 10205,
      "choo": 10206,
      "thread": 10207,
      "players": 10208,
      "spl": 10209,
      "manu": 10210,
      "mentioned": 10211,
      "shape": 10212,
      "noise": 10213,
      "bags": 10214,
      "uring": 10215,
      "honestly": 10216,
      "mini": 10217,
      "evil": 10218,
      "dut": 10219,
      "develop": 10220,
      "designed": 10221,
      "apped": 10222,
      "various": 10223,
      "exist": 10224,
      "iphone": 10225,
      "rench": 10226,
      "twice": 10227,
      "nie": 10228,
      "prin": 10229,
      "steel": 10230,
      "tank": 10231,
      "orge": 10232,
      "ession": 10233,
      "horri": 10234,
      "grip": 10235,
      "commun": 10236,
      "lose": 10237,
      "consist": 10238,
      "ride": 10239,
      "modern": 10240,
      "tiny": 10241,
      "seller": 10242,
      "mes": 10243,
      "stain": 10244,
      "upon": 10245,
      "field": 10246,
      "trip": 10247,
      "occas": 10248,
      "birth": 10249,
      "counter": 10250,
      "annoying": 10251,
      "solution": 10252,
      "allows": 10253,
      "ired": 10254,
      "pump": 10255,
      "leaves": 10256,
      "girls": 10257,
      "ima": 10258,
      "imagine": 10259,
      "contact": 10260,
      "clearly": 10261,
      "ises": 10262,
      "combin": 10263,
      "smart": 10264,
      "via": 10265,
      "damage": 10266,
      "iss": 10267,
      "daily": 10268,
      "remind": 10269,
      "spent": 10270,
      "explo": 10271,
      "histor": 10272,
      "usion": 10273,
      "cant": 10274,
      "realize": 10275,
      "sister": 10276,
      "block": 10277,
      "manufact": 10278,
      "public": 10279,
      "provide": 10280,
      "lier": 10281,
      "jump": 10282,
      "medium": 10283,
      "reci": 10284,
      "scri": 10285,
      "ries": 10286,
      "tran": 10287,
      "avoid": 10288,
      "dust": 10289,
      "orts": 10290,
      "west": 10291,
      "vision": 10292,
      "production": 10293,
      "literally": 10294,
      "delic": 10295,
      "scratch": 10296,
      "filled": 10297,
      "writer": 10298,
      "total": 10299,
      "eventually": 10300,
      "experien": 10301,
      "seal": 10302,
      "shar": 10303,
      "acy": 10304,
      "obviously": 10305,
      "talent": 10306,
      "runs": 10307,
      "office": 10308,
      "brilli": 10309,
      "role": 10310,
      "morning": 10311,
      "accept": 10312,
      "compe": 10313,
      "eu": 10314,
      "tee": 10315,
      "delivery": 10316,
      "wed": 10317,
      "minute": 10318,
      "basic": 10319,
      "solo": 10320,
      "mary": 10321,
      "strug": 10322,
      "clip": 10323,
      "cked": 10324,
      "controll": 10325,
      "grad": 10326,
      "loss": 10327,
      "seriously": 10328,
      "edit": 10329,
      "cry": 10330,
      "connection": 10331,
      "wild": 10332,
      "doc": 10333,
      "99": 10334,
      "results": 10335,
      "keyboard": 10336,
      "dies": 10337,
      "average": 10338,
      "stuck": 10339,
      "brought": 10340,
      "starting": 10341,
      "inde": 10342,
      "fell": 10343,
      "paint": 10344,
      "vs": 10345,
      "ases": 10346,
      "finding": 10347,
      "cred": 10348,
      "hits": 10349,
      "improve": 10350,
      "further": 10351,
      "init": 10352,
      "bud": 10353,
      "altern": 10354,
      "satisfied": 10355,
      "doubt": 10356,
      "became": 10357,
      "cand": 10358,
      "beyond": 10359,
      "customer": 10360,
      "places": 10361,
      "center": 10362,
      "soul": 10363,
      "returned": 10364,
      "verse": 10365,
      "earth": 10366,
      "adding": 10367,
      "proof": 10368,
      "softw": 10369,
      "crack": 10370,
      "ied": 10371,
      "cell": 10372,
      "software": 10373,
      "boys": 10374,
      "ught": 10375,
      "exception": 10376,
      "gal": 10377,
      "cleaning": 10378,
      "nu": 10379,
      "surface": 10380,
      "rus": 10381,
      "accurate": 10382,
      "changes": 10383,
      "impres": 10384,
      "cult": 10385,
      "chi": 10386,
      "necessary": 10387,
      "ns": 10388,
      "od": 10389,
      "moments": 10390,
      "belt": 10391,
      "shoo": 10392,
      "magic": 10393,
      "pressure": 10394,
      "eli": 10395,
      "charging": 10396,
      "firm": 10397,
      "nel": 10398,
      "lic": 10399,
      "worse": 10400,
      "becomes": 10401,
      "fiction": 10402,
      "frame": 10403,
      "excited": 10404,
      "continu": 10405,
      "pal": 10406,
      "desk": 10407,
      "appears": 10408,
      "gain": 10409,
      "profession": 10410,
      "thrill": 10411,
      "vocals": 10412,
      "exchange": 10413,
      "orable": 10414,
      "nic": 10415,
      "considering": 10416,
      "suspen": 10417,
      "telling": 10418,
      "buttons": 10419,
      "storage": 10420,
      "individ": 10421,
      "thus": 10422,
      "asy": 10423,
      "inten": 10424,
      "bles": 10425,
      "greatest": 10426,
      "worry": 10427,
      "mad": 10428,
      "pound": 10429,
      "suff": 10430,
      "speakers": 10431,
      "hen": 10432,
      "reco": 10433,
      "protector": 10434,
      "grab": 10435,
      "han": 10436,
      "incre": 10437,
      "motor": 10438,
      "ado": 10439,
      "ram": 10440,
      "variety": 10441,
      "watched": 10442,
      "terrible": 10443,
      "english": 10444,
      "cables": 10445,
      "anymore": 10446,
      "memory": 10447,
      "drum": 10448,
      "frust": 10449,
      "dav": 10450,
      "effective": 10451,
      "aster": 10452,
      "worst": 10453,
      "bulbs": 10454,
      "laptop": 10455,
      "lies": 10456,
      "common": 10457,
      "apparen": 10458,
      "minor": 10459,
      "details": 10460,
      "brown": 10461,
      "unlike": 10462,
      "send": 10463,
      "soc": 10464,
      "ined": 10465,
      "boring": 10466,
      "tale": 10467,
      "owned": 10468,
      "cru": 10469,
      "personally": 10470,
      "screws": 10471,
      "thre": 10472,
      "musical": 10473,
      "packaging": 10474,
      "properly": 10475,
      "meet": 10476,
      "complaint": 10477,
      "wers": 10478,
      "angle": 10479,
      "hat": 10480,
      "sexy": 10481,
      "pers": 10482,
      "ung": 10483,
      "create": 10484,
      "background": 10485,
      "slee": 10486,
      "result": 10487,
      "helped": 10488,
      "offer": 10489,
      "battle": 10490,
      "engine": 10491,
      "fat": 10492,
      "imp": 10493,
      "itty": 10494,
      "digital": 10495,
      "icle": 10496,
      "subject": 10497,
      "fant": 10498,
      "sym": 10499,
      "weird": 10500,
      "rac": 10501,
      "boots": 10502,
      "forever": 10503,
      "path": 10504,
      "provided": 10505,
      "edition": 10506,
      "ery": 10507,
      "finds": 10508,
      "comed": 10509,
      "particularly": 10510,
      "blow": 10511,
      "content": 10512,
      "afr": 10513,
      "duty": 10514,
      "cart": 10515,
      "include": 10516,
      "wing": 10517,
      "norm": 10518,
      "deter": 10519,
      "expecting": 10520,
      "advan": 10521,
      "windows": 10522,
      "leather": 10523,
      "psy": 10524,
      "ender": 10525,
      "core": 10526,
      "section": 10527,
      "bell": 10528,
      "helpful": 10529,
      "readers": 10530,
      "tries": 10531,
      "fol": 10532,
      "tur": 10533,
      "chem": 10534,
      "trail": 10535,
      "effects": 10536,
      "zip": 10537,
      "attached": 10538,
      "truth": 10539,
      "stopped": 10540,
      "situation": 10541,
      "za": 10542,
      "blood": 10543,
      "typical": 10544,
      "lat": 10545,
      "rant": 10546,
      "removed": 10547,
      "mechan": 10548,
      "appreciate": 10549,
      "format": 10550,
      "corn": 10551,
      "rand": 10552,
      "provides": 10553,
      "following": 10554,
      "occasion": 10555,
      "smo": 10556,
      "yo": 10557,
      "tension": 10558,
      "mart": 10559,
      "ury": 10560,
      "sized": 10561,
      "compar": 10562,
      "thro": 10563,
      "quiet": 10564,
      "shop": 10565,
      "rough": 10566,
      "female": 10567,
      "odd": 10568,
      "building": 10569,
      "snap": 10570,
      "syn": 10571,
      "priced": 10572,
      "sitting": 10573,
      "events": 10574,
      "uce": 10575,
      "stren": 10576,
      "episode": 10577,
      "phys": 10578,
      "tial": 10579,
      "tract": 10580,
      "dance": 10581,
      "stup": 10582,
      "drink": 10583,
      "winter": 10584,
      "ral": 10585,
      "dream": 10586,
      "ica": 10587,
      "surprise": 10588,
      "pleas": 10589,
      "ctor": 10590,
      "yard": 10591,
      "ko": 10592,
      "swi": 10593,
      "adult": 10594,
      "learning": 10595,
      "rul": 10596,
      "wanting": 10597,
      "asked": 10598,
      "pens": 10599,
      "iv": 10600,
      "earlier": 10601,
      "sole": 10602,
      "depth": 10603,
      "bonus": 10604,
      "died": 10605,
      "serv": 10606,
      "spoil": 10607,
      "ultim": 10608,
      "zen": 10609,
      "among": 10610,
      "melo": 10611,
      "shif": 10612,
      "dress": 10613,
      "image": 10614,
      "frequ": 10615,
      "kick": 10616,
      "download": 10617,
      "suspense": 10618,
      "setup": 10619,
      "chain": 10620,
      "bility": 10621,
      "limited": 10622,
      "fault": 10623,
      "stores": 10624,
      "streng": 10625,
      "conds": 10626,
      "outer": 10627,
      "shirt": 10628,
      "langu": 10629,
      "instr": 10630,
      "viol": 10631,
      "rope": 10632,
      "fabric": 10633,
      "ake": 10634,
      "negative": 10635,
      "pure": 10636,
      "neck": 10637,
      "cutting": 10638,
      "aspect": 10639,
      "seconds": 10640,
      "christi": 10641,
      "choose": 10642,
      "popular": 10643,
      "breaking": 10644,
      "hasn": 10645,
      "user": 10646,
      "options": 10647,
      "strange": 10648,
      "weather": 10649,
      "stupid": 10650,
      "collect": 10651,
      "careful": 10652,
      "brings": 10653,
      "learned": 10654,
      "azz": 10655,
      "spring": 10656,
      "adapter": 10657,
      "truck": 10658,
      "answer": 10659,
      "progre": 10660,
      "omb": 10661,
      "installation": 10662,
      "stretch": 10663,
      "rot": 10664,
      "incredible": 10665,
      "ships": 10666,
      "walking": 10667,
      "bunch": 10668,
      "aware": 10669,
      "picked": 10670,
      "suit": 10671,
      "respect": 10672,
      "meant": 10673,
      "attack": 10674,
      "mou": 10675,
      "display": 10676,
      "barely": 10677,
      "rup": 10678,
      "bb": 10679,
      "wiki": 10680,
      "decis": 10681,
      "positive": 10682,
      "drama": 10683,
      "essenti": 10684,
      "bands": 10685,
      "surprising": 10686,
      "headphones": 10687,
      "sque": 10688,
      "hurt": 10689,
      "familiar": 10690,
      "gb": 10691,
      "danger": 10692,
      "chick": 10693,
      "pill": 10694,
      "tradition": 10695,
      "zo": 10696,
      "youtube": 10697,
      "murder": 10698,
      "construction": 10699,
      "constantly": 10700,
      "ference": 10701,
      "reviewers": 10702,
      "driver": 10703,
      "america": 10704,
      "mission": 10705,
      "emp": 10706,
      "jes": 10707,
      "intri": 10708,
      "actions": 10709,
      "tells": 10710,
      "weap": 10711,
      "trick": 10712,
      "measure": 10713,
      "rs": 10714,
      "eds": 10715,
      "ana": 10716,
      "lab": 10717,
      "printer": 10718,
      "horror": 10719,
      "nd": 10720,
      "brands": 10721,
      "drill": 10722,
      "figured": 10723,
      "flex": 10724,
      "fro": 10725,
      "bits": 10726,
      "genre": 10727,
      "gent": 10728,
      "veh": 10729,
      "james": 10730,
      "career": 10731,
      "apple": 10732,
      "reve": 10733,
      "cil": 10734,
      "wet": 10735,
      "poten": 10736,
      "news": 10737,
      "jam": 10738,
      "wireless": 10739,
      "22": 10740,
      "anywhere": 10741,
      "goo": 10742,
      "minim": 10743,
      "complaints": 10744,
      "brilliant": 10745,
      "automat": 10746,
      "ark": 10747,
      "healthy": 10748,
      "dict": 10749,
      "fuck": 10750,
      "lasted": 10751,
      "cars": 10752,
      "normally": 10753,
      "survi": 10754,
      "hose": 10755,
      "moves": 10756,
      "accident": 10757,
      "discus": 10758,
      "tip": 10759,
      "umb": 10760,
      "apply": 10761,
      "activ": 10762,
      "strength": 10763,
      "hopefully": 10764,
      "reasons": 10765,
      "tired": 10766,
      "storyline": 10767,
      "snow": 10768,
      "impossible": 10769,
      "san": 10770,
      "fas": 10771,
      "photos": 10772,
      "involved": 10773,
      "ony": 10774,
      "applic": 10775,
      "doors": 10776,
      "meaning": 10777,
      "connected": 10778,
      "faster": 10779,
      "leaving": 10780,
      "dio": 10781,
      "haha": 10782,
      "dialo": 10783,
      "finger": 10784,
      "individual": 10785,
      "edu": 10786,
      "litter": 10787,
      "delicious": 10788,
      "tab": 10789,
      "require": 10790,
      "graphics": 10791,
      "ka": 10792,
      "chor": 10793,
      "ination": 10794,
      "micha": 10795,
      "gear": 10796,
      "moved": 10797,
      "cape": 10798,
      "stone": 10799,
      "direction": 10800,
      "brit": 10801,
      "slide": 10802,
      "ences": 10803,
      "science": 10804,
      "michael": 10805,
      "sugar": 10806,
      "jer": 10807,
      "rit": 10808,
      "resist": 10809,
      "actors": 10810,
      "opp": 10811,
      "irty": 10812,
      "opened": 10813,
      "horrible": 10814,
      "professional": 10815,
      "energy": 10816,
      "beautifully": 10817,
      "emotional": 10818,
      "iff": 10819,
      "complex": 10820,
      "chapter": 10821,
      "nal": 10822,
      "electric": 10823,
      "guard": 10824,
      "gover": 10825,
      "ordering": 10826,
      "purchasing": 10827,
      "lied": 10828,
      "adventure": 10829,
      "stays": 10830,
      "dish": 10831,
      "feat": 10832,
      "falls": 10833,
      "realistic": 10834,
      "kinda": 10835,
      "ene": 10836,
      "mouth": 10837,
      "mate": 10838,
      "reasonable": 10839,
      "share": 10840,
      "puts": 10841,
      "tall": 10842,
      "shut": 10843,
      "rote": 10844,
      "stal": 10845,
      "35": 10846,
      "required": 10847,
      "types": 10848,
      "legs": 10849,
      "lb": 10850,
      "created": 10851,
      "hey": 10852,
      "journey": 10853,
      "caught": 10854,
      "click": 10855,
      "worn": 10856,
      "sky": 10857,
      "admit": 10858,
      "sizes": 10859,
      "boot": 10860,
      "spective": 10861,
      "dad": 10862,
      "bulb": 10863,
      "bother": 10864,
      "tered": 10865,
      "grandson": 10866,
      "trump": 10867,
      "treats": 10868,
      "believable": 10869,
      "birthday": 10870,
      "source": 10871,
      "secret": 10872,
      "wrote": 10873,
      "kin": 10874,
      "pin": 10875,
      "ians": 10876,
      "pros": 10877,
      "versions": 10878,
      "settings": 10879,
      "lam": 10880,
      "monit": 10881,
      "developed": 10882,
      "hidden": 10883,
      "nature": 10884,
      "network": 10885,
      "devices": 10886,
      "convenient": 10887,
      "eating": 10888,
      "lly": 10889,
      "hon": 10890,
      "ager": 10891,
      "45": 10892,
      "knowing": 10893,
      "tro": 10894,
      "cise": 10895,
      "dropped": 10896,
      "towards": 10897,
      "blu": 10898,
      "media": 10899,
      "inser": 10900,
      "social": 10901,
      "concept": 10902,
      "relative": 10903,
      "nail": 10904,
      "videos": 10905,
      "additional": 10906,
      "includes": 10907,
      "pool": 10908,
      "cords": 10909,
      "language": 10910,
      "lovely": 10911,
      "college": 10912,
      "icks": 10913,
      "willing": 10914,
      "fantasy": 10915,
      "thats": 10916,
      "pink": 10917,
      "ease": 10918,
      "ides": 10919,
      "manufacture": 10920,
      "feelings": 10921,
      "hill": 10922,
      "below": 10923,
      "bowl": 10924,
      "shower": 10925,
      "puppy": 10926,
      "era": 10927,
      "pts": 10928,
      "window": 10929,
      "hea": 10930,
      "biggest": 10931,
      "spac": 10932,
      "ibly": 10933,
      "idence": 10934,
      "compan": 10935,
      "puzz": 10936,
      "hooked": 10937,
      "anna": 10938,
      "chair": 10939,
      "development": 10940,
      "episodes": 10941,
      "butter": 10942,
      "indic": 10943,
      "turning": 10944,
      "plate": 10945,
      "ening": 10946,
      "gard": 10947,
      "falling": 10948,
      "signific": 10949,
      "theme": 10950,
      "terms": 10951,
      "placed": 10952,
      "born": 10953,
      "intended": 10954,
      "lbs": 10955,
      "inches": 10956,
[...]
